#pragma once
#include <cstdint>

const std::uint8_t model_data[] = {
  0x1c, 0x00, 0x00, 0x00, 0x54, 0x46, 0x4c, 0x33, 0x14, 0x00, 0x20, 0x00, 0x1c, 0x00, 0x18, 0x00, 0x14, 0x00, 0x10, 0x00, 0x0c, 0x00, 0x00, 0x00, 0x08, 0x00, 0x04, 0x00, 0x14, 0x00, 0x00, 0x00, 0x1c, 0x00, 0x00, 0x00, 0x80, 0x00, 0x00, 0x00, 0xd8, 0x00, 0x00, 0x00, 0xf8, 0x29, 0x00, 0x00, 0x08, 0x2a, 0x00, 0x00, 0xa4, 0x2f, 0x00, 0x00, 0x03, 0x00, 0x00, 0x00, 0x01, 0x00, 0x00, 0x00, 0x04, 0x00, 0x00, 0x00, 0xba, 0xd5, 0xff, 0xff, 0x0c, 0x00, 0x00, 0x00, 0x1c, 0x00, 0x00, 0x00, 0x38, 0x00, 0x00, 0x00, 0x0f, 0x00, 0x00, 0x00, 0x73, 0x65, 0x72, 0x76, 0x69, 0x6e, 0x67, 0x5f, 0x64, 0x65, 0x66, 0x61, 0x75, 0x6c, 0x74, 0x00, 0x01, 0x00, 0x00, 0x00, 0x04, 0x00, 0x00, 0x00, 0x9c, 0xff, 0xff, 0xff, 0x0a, 0x00, 0x00, 0x00, 0x04, 0x00, 0x00, 0x00, 0x07, 0x00, 0x00, 0x00, 0x64, 0x65, 0x6e, 0x73, 0x65, 0x5f, 0x32, 0x00, 0x01, 0x00, 0x00, 0x00, 0x04, 0x00, 0x00, 0x00, 0x06, 0xd7, 0xff, 0xff, 0x04, 0x00, 0x00, 0x00, 0x07, 0x00, 0x00, 0x00, 0x69, 0x6e, 0x70, 0x75, 0x74, 0x5f, 0x31, 0x00, 0x02, 0x00, 0x00, 0x00, 0x34, 0x00, 0x00, 0x00, 0x04, 0x00, 0x00, 0x00, 0xdc, 0xff, 0xff, 0xff, 0x0d, 0x00, 0x00, 0x00, 0x04, 0x00, 0x00, 0x00, 0x13, 0x00, 0x00, 0x00, 0x43, 0x4f, 0x4e, 0x56, 0x45, 0x52, 0x53, 0x49, 0x4f, 0x4e, 0x5f, 0x4d, 0x45, 0x54, 0x41, 0x44, 0x41, 0x54, 0x41, 0x00, 0x08, 0x00, 0x0c, 0x00, 0x08, 0x00, 0x04, 0x00, 0x08, 0x00, 0x00, 0x00, 0x0c, 0x00, 0x00, 0x00, 0x04, 0x00, 0x00, 0x00, 0x13, 0x00, 0x00, 0x00, 0x6d, 0x69, 0x6e, 0x5f, 0x72, 0x75, 0x6e, 0x74, 0x69, 0x6d, 0x65, 0x5f, 0x76, 0x65, 0x72, 0x73, 0x69, 0x6f, 0x6e, 0x00, 0x0e, 0x00, 0x00, 0x00, 0x1c, 0x29, 0x00, 0x00, 0x14, 0x29, 0x00, 0x00, 0x84, 0x28, 0x00, 0x00, 0x68, 0x28, 0x00, 0x00, 0x58, 0x27, 0x00, 0x00, 0x48, 0x21, 0x00, 0x00, 0x38, 0x01, 0x00, 0x00, 0xa8, 0x00, 0x00, 0x00, 0xa0, 0x00, 0x00, 0x00, 0x98, 0x00, 0x00, 0x00, 0x90, 0x00, 0x00, 0x00, 0x88, 0x00, 0x00, 0x00, 0x68, 0x00, 0x00, 0x00, 0x04, 0x00, 0x00, 0x00, 0xb2, 0xd7, 0xff, 0xff, 0x04, 0x00, 0x00, 0x00, 0x54, 0x00, 0x00, 0x00, 0x0c, 0x00, 0x00, 0x00, 0x08, 0x00, 0x0e, 0x00, 0x08, 0x00, 0x04, 0x00, 0x08, 0x00, 0x00, 0x00, 0x10, 0x00, 0x00, 0x00, 0x24, 0x00, 0x00, 0x00, 0x00, 0x00, 0x06, 0x00, 0x08, 0x00, 0x04, 0x00, 0x06, 0x00, 0x00, 0x00, 0x04, 0x00, 0x00, 0x00, 0x00, 0x00, 0x00, 0x00, 0x00, 0x00, 0x0a, 0x00, 0x10, 0x00, 0x0c, 0x00, 0x08, 0x00, 0x04, 0x00, 0x0a, 0x00, 0x00, 0x00, 0x02, 0x00, 0x00, 0x00, 0x02, 0x00, 0x00, 0x00, 0x04, 0x00, 0x00, 0x00, 0x06, 0x00, 0x00, 0x00, 0x32, 0x2e, 0x31, 0x33, 0x2e, 0x30, 0x00, 0x00, 0x12, 0xd8, 0xff, 0xff, 0x04, 0x00, 0x00, 0x00, 0x10, 0x00, 0x00, 0x00, 0x31, 0x2e, 0x31, 0x34, 0x2e, 0x30, 0x00, 0x00, 0x00, 0x00, 0x00, 0x00, 0x00, 0x00, 0x00, 0x00, 0x14, 0xd2, 0xff, 0xff, 0x18, 0xd2, 0xff, 0xff, 0x1c, 0xd2, 0xff, 0xff, 0x20, 0xd2, 0xff, 0xff, 0x3e, 0xd8, 0xff, 0xff, 0x04, 0x00, 0x00, 0x00, 0x80, 0x00, 0x00, 0x00, 0x79, 0x0a, 0x5a, 0x3e, 0xa5, 0x19, 0x42, 0xbd, 0x5e, 0x60, 0x4f, 0xc0, 0x25, 0x48, 0x9d, 0x3b, 0x2b, 0x0c, 0x08, 0xbc, 0x47, 0xd9, 0xfa, 0xbc, 0xcb, 0xc3, 0x64, 0xbd, 0x62, 0xa2, 0xf8, 0xbf, 0x78, 0x9a, 0xb9, 0x3d, 0x08, 0x59, 0x4c, 0xbe, 0x96, 0xe4, 0xf7, 0xbe, 0x55, 0xe3, 0x8c, 0xbd, 0xa7, 0x01, 0x46, 0xbd, 0x39, 0xd5, 0x86, 0x3d, 0x11, 0x21, 0x22, 0x3e, 0xc7, 0x15, 0xc1, 0x3d, 0x02, 0x97, 0x46, 0xbe, 0xd5, 0x35, 0x64, 0xbf, 0x3e, 0x4d, 0xaa, 0x3d, 0x66, 0xfc, 0x97, 0x3e, 0x01, 0xcf, 0x9e, 0xbd, 0x78, 0x36, 0x31, 0xbd, 0xd5, 0xb4, 0x20, 0xbe, 0x76, 0x41, 0x68, 0xbe, 0xcc, 0x1d, 0xb8, 0xbd, 0xfd, 0xc8, 0x70, 0x3d, 0x24, 0xc6, 0x16, 0x39, 0xe3, 0x8c, 0x2c, 0x3d, 0x26, 0x0d, 0x2e, 0xbe, 0x2a, 0x1a, 0xe7, 0x3d, 0x08, 0xc7, 0x74, 0x3d, 0x8c, 0xd4, 0xd1, 0xbd, 0xca, 0xd8, 0xff, 0xff, 0x04, 0x00, 0x00, 0x00, 0x00, 0x20, 0x00, 0x00, 0xb6, 0xbb, 0x0e, 0x3f, 0x24, 0x0b, 0xfb, 0x3e, 0x97, 0x94, 0x99, 0x3f, 0x7a, 0xea, 0xf4, 0x40, 0xa9, 0x55, 0x14, 0x40, 0x5d, 0xf6, 0x5b, 0xbf, 0x89, 0x00, 0x70, 0x3e, 0x79, 0x99, 0x0d, 0xbf, 0xb6, 0x61, 0x12, 0xc0, 0xfe, 0xeb, 0x17, 0xba, 0xf8, 0xab, 0x68, 0x3e, 0x1a, 0x1c, 0x9b, 0xc0, 0x95, 0xf7, 0xf2, 0xbf, 0x6a, 0xfd, 0x50, 0xc0, 0xb4, 0xc0, 0x05, 0xc0, 0x76, 0xdb, 0x8a, 0xc0, 0x65, 0xe1, 0xfb, 0x40, 0xcb, 0x83, 0x53, 0xbf, 0x2e, 0x5d, 0xf1, 0x3e, 0x28, 0x0d, 0x47, 0xc0, 0x3e, 0x9b, 0xdc, 0xc0, 0xed, 0x72, 0x56, 0xc0, 0xab, 0x5f, 0x01, 0x41, 0x1a, 0xe0, 0x39, 0xbe, 0x29, 0x93, 0x4e, 0x3e, 0xe1, 0x09, 0x09, 0x3f, 0xa5, 0x50, 0xd1, 0xbf, 0x73, 0x8a, 0x15, 0xbf, 0x1e, 0x1a, 0x6a, 0xc0, 0x8f, 0x9f, 0x6c, 0x3f, 0xe3, 0xd3, 0x3f, 0x40, 0x98, 0x98, 0x94, 0xbd, 0x29, 0x36, 0xd1, 0x40, 0x96, 0x98, 0x0a, 0xc0, 0xaa, 0xe5, 0x03, 0x3f, 0xab, 0x80, 0x29, 0x40, 0x85, 0x16, 0x90, 0x3f, 0xa7, 0x37, 0x51, 0x3f, 0x60, 0x95, 0x93, 0x3f, 0x7b, 0xde, 0xe3, 0xbf, 0x6c, 0xf0, 0x71, 0x40, 0x9a, 0x8b, 0x99, 0xbf, 0x7e, 0x1c, 0x2c, 0xc0, 0x23, 0x05, 0xeb, 0xbd, 0x0d, 0x96, 0x5b, 0xbe, 0x72, 0x98, 0xa7, 0x3f, 0x84, 0x8b, 0xa4, 0xc0, 0x78, 0x9a, 0x8d, 0xbe, 0x67, 0x40, 0x0a, 0xc0, 0x15, 0x39, 0x85, 0x40, 0xe4, 0x82, 0xac, 0x3f, 0xad, 0xcd, 0x9c, 0x3f, 0x6e, 0x8b, 0x86, 0xc0, 0x31, 0x12, 0xd6, 0xc0, 0x38, 0x0d, 0xbf, 0xbf, 0xe9, 0xc0, 0x71, 0xbe, 0x9f, 0xff, 0x06, 0xbf, 0x38, 0xee, 0x9e, 0x40, 0x9e, 0x08, 0x8c, 0xbf, 0x41, 0x3a, 0xd2, 0x3e, 0xa9, 0x18, 0x1f, 0x41, 0x78, 0x14, 0x06, 0x3e, 0x2b, 0x85, 0xb9, 0x3f, 0x67, 0x9c, 0x8a, 0x3f, 0x4a, 0x4a, 0x23, 0xbf, 0xb5, 0x8c, 0x8b, 0xc0, 0xc6, 0xa5, 0x96, 0xbf, 0x6b, 0xfa, 0x93, 0x3f, 0x11, 0xe6, 0xbf, 0x3e, 0x8c, 0xf0, 0xd5, 0xbe, 0xfd, 0x10, 0xa1, 0xbf, 0xcd, 0xcf, 0x1f, 0xc0, 0x77, 0xac, 0xee, 0x3f, 0x96, 0x2a, 0xaa, 0xbe, 0x97, 0x14, 0x7a, 0xbd, 0xf5, 0x09, 0xf7, 0xbb, 0x7c, 0xd6, 0x38, 0x3f, 0x13, 0x18, 0xd1, 0x3f, 0xc9, 0xfa, 0x95, 0xbf, 0xc0, 0x66, 0xc6, 0xbf, 0x6d, 0xa6, 0x05, 0x3f, 0xb4, 0x05, 0x9b, 0xbe, 0xb6, 0x03, 0x2a, 0xbf, 0xd4, 0x00, 0xb3, 0xbe, 0x48, 0xf3, 0x6b, 0xbf, 0xf9, 0xbe, 0x92, 0xbe, 0x45, 0x20, 0xb8, 0x3f, 0xeb, 0x34, 0x15, 0xbd, 0x67, 0xe3, 0x04, 0x40, 0x95, 0x56, 0x87, 0xbf, 0x6b, 0xb6, 0xe6, 0xbc, 0xf9, 0x82, 0xb7, 0x3f, 0x22, 0x86, 0xaf, 0xbe, 0x35, 0x99, 0x5e, 0xbd, 0xa4, 0x6e, 0xd3, 0x3e, 0x7f, 0xdd, 0xb4, 0xc0, 0x5c, 0x39, 0x24, 0x3f, 0x16, 0xc1, 0xb4, 0xbd, 0x3c, 0x2c, 0xd7, 0xbf, 0xb1, 0x33, 0x9f, 0x3e, 0x2e, 0xbe, 0xbc, 0xbe, 0x7b, 0xf9, 0x12, 0x40, 0xf8, 0xe7, 0x5f, 0xc0, 0x7f, 0xa3, 0xd2, 0x3e, 0x5a, 0x0c, 0x97, 0x3f, 0xf4, 0xff, 0x82, 0x3e, 0xdf, 0x63, 0x2e, 0xbc, 0x2b, 0x24, 0xd3, 0x3d, 0x84, 0x97, 0x24, 0x3f, 0x89, 0x6a, 0x50, 0x3f, 0xdd, 0x4c, 0x47, 0x3e, 0xad, 0x87, 0x7f, 0xc0, 0x75, 0x9f, 0x19, 0xbf, 0x2c, 0x50, 0x38, 0x40, 0x71, 0xa7, 0x0d, 0xbf, 0x19, 0x57, 0x48, 0xbf, 0x80, 0xdc, 0x2f, 0xbf, 0xd4, 0x14, 0x7c, 0xbe, 0x60, 0xaa, 0x40, 0x3f, 0xad, 0x96, 0x0e, 0xc0, 0xd3, 0x5a, 0x12, 0xbf, 0x9c, 0x7d, 0x42, 0x3f, 0xad, 0x51, 0x6e, 0x3e, 0x02, 0x17, 0x92, 0xbe, 0x1d, 0xe0, 0x76, 0x3e, 0x0f, 0x9c, 0x1d, 0xbe, 0xcb, 0x7c, 0x22, 0x3f, 0xa8, 0x56, 0x9c, 0xbf, 0x6c, 0xf6, 0x13, 0xc2, 0xf5, 0x00, 0xb4, 0xbe, 0x7a, 0x6d, 0x41, 0xbe, 0x83, 0x00, 0x14, 0x3e, 0x50, 0xf8, 0x65, 0x3f, 0x71, 0x03, 0x85, 0xc0, 0xea, 0xdb, 0x5e, 0xbf, 0x87, 0x0e, 0x78, 0x3c, 0x10, 0x0c, 0x30, 0xbf, 0x77, 0x4e, 0x8c, 0x3f, 0xc1, 0xee, 0xe3, 0xbf, 0xb1, 0x91, 0xf2, 0xbc, 0x26, 0xee, 0x73, 0xbc, 0x79, 0xf7, 0x15, 0xbf, 0xea, 0x06, 0x65, 0xbe, 0x80, 0xfa, 0x38, 0xc0, 0x7e, 0xbe, 0x6d, 0xbf, 0xe9, 0x29, 0x52, 0xc0, 0xee, 0x51, 0xb0, 0xbd, 0x91, 0x66, 0xda, 0xbc, 0x33, 0xf6, 0x37, 0x3d, 0x88, 0x99, 0x01, 0x41, 0x30, 0x1e, 0xb5, 0x3d, 0xb7, 0xcb, 0xd9, 0xc1, 0x9e, 0x6f, 0x75, 0x40, 0x83, 0x5b, 0xed, 0xbf, 0x2a, 0x43, 0xbe, 0xc1, 0x92, 0xa8, 0x69, 0xbe, 0xab, 0x08, 0xca, 0x3f, 0xa1, 0x48, 0x43, 0x40, 0xcb, 0x68, 0xea, 0x3d, 0x92, 0x16, 0xa6, 0xbf, 0x69, 0x9a, 0xc6, 0xc0, 0x32, 0xc4, 0xa6, 0xbe, 0x0f, 0x9c, 0x6a, 0xc0, 0x27, 0x7c, 0x92, 0xc0, 0xdb, 0xac, 0x1e, 0xbd, 0xc8, 0x1a, 0x5f, 0xbf, 0x50, 0x04, 0xe3, 0x3d, 0x26, 0xad, 0xcd, 0xbf, 0x14, 0x90, 0x8f, 0x41, 0xa4, 0x8a, 0xa8, 0xc0, 0x30, 0x05, 0x44, 0xc0, 0xd3, 0x5b, 0x79, 0xc0, 0xa3, 0xf1, 0xce, 0xbe, 0x78, 0x44, 0x3a, 0xbf, 0x9f, 0x43, 0xa5, 0x3d, 0x9e, 0x07, 0x6f, 0xbf, 0x40, 0x65, 0x52, 0xbe, 0xa7, 0xb6, 0x6c, 0xbf, 0xb7, 0x4a, 0x10, 0x3d, 0xc6, 0xd6, 0x40, 0x3f, 0xc0, 0xcd, 0xc3, 0xc0, 0x01, 0xba, 0x39, 0xbe, 0x8c, 0x60, 0xa4, 0x40, 0x41, 0xaa, 0x06, 0x3e, 0xf2, 0xf9, 0x18, 0x41, 0xf7, 0x91, 0x99, 0xc0, 0xab, 0xe3, 0x86, 0xbf, 0xf4, 0x6e, 0xcf, 0xbd, 0x0a, 0xa7, 0x97, 0x41, 0x1f, 0x9c, 0xac, 0xbf, 0xf2, 0x6f, 0xdb, 0xbf, 0xa0, 0xa6, 0xcf, 0xbe, 0xcd, 0x8e, 0xc7, 0xbd, 0xef, 0x1c, 0x82, 0xbe, 0x15, 0x97, 0xad, 0x3c, 0x21, 0x58, 0xed, 0xbd, 0x70, 0x98, 0x35, 0xbe, 0x95, 0x53, 0x32, 0x3e, 0xdc, 0x7c, 0x8e, 0x3d, 0x9e, 0xcd, 0xa8, 0xbe, 0x39, 0xba, 0xc7, 0xbd, 0x20, 0x87, 0x83, 0xbe, 0xe7, 0xe9, 0xcc, 0xbb, 0xa2, 0xf8, 0x2a, 0xbd, 0xfc, 0x4b, 0x05, 0x3e, 0xbd, 0xc6, 0x73, 0xbd, 0x44, 0xf6, 0x7f, 0xbe, 0xb5, 0xfe, 0xb6, 0x3d, 0x48, 0xa3, 0x8e, 0x3e, 0x2f, 0xa5, 0x06, 0x3d, 0x8b, 0xe2, 0x3d, 0xbe, 0x94, 0x42, 0xd9, 0xbd, 0xb4, 0xa7, 0xb0, 0xbc, 0x7b, 0xb3, 0xe1, 0xbd, 0x44, 0x7d, 0x17, 0x3e, 0xff, 0xcd, 0x2e, 0xbe, 0xe3, 0xb5, 0xaa, 0xbe, 0x38, 0xd8, 0xb1, 0xbc, 0x39, 0x05, 0xb7, 0x3c, 0xda, 0xf8, 0x74, 0x3e, 0xd5, 0xf8, 0x0e, 0x3e, 0xf2, 0x55, 0xce, 0x3c, 0x8d, 0xb8, 0xb0, 0xbd, 0x57, 0xc3, 0x9c, 0x3d, 0xfa, 0x77, 0x74, 0xbe, 0x0f, 0x37, 0xab, 0xbc, 0x1c, 0x2a, 0xa9, 0xbc, 0xdd, 0x92, 0x66, 0xbe, 0xad, 0xf2, 0x0d, 0xbe, 0xdf, 0xbe, 0x7b, 0x3e, 0x5f, 0xa4, 0x76, 0xbe, 0x96, 0x2b, 0x5a, 0xbe, 0x0f, 0xf3, 0x41, 0x3e, 0x91, 0x35, 0x75, 0xbe, 0x2c, 0x6e, 0x16, 0xbe, 0x2b, 0x4b, 0xe8, 0xbd, 0x5c, 0x3e, 0x37, 0x3d, 0xd4, 0x42, 0x03, 0x3d, 0xa1, 0x52, 0x15, 0x3c, 0x91, 0xd8, 0xf9, 0xbd, 0x5a, 0xfd, 0x95, 0x3d, 0xad, 0x9e, 0x21, 0xbe, 0x32, 0x14, 0x84, 0xbe, 0x4e, 0xbb, 0x71, 0x3d, 0x5e, 0x64, 0x58, 0x3d, 0xc8, 0xa2, 0x88, 0xbe, 0x5d, 0x60, 0x4b, 0xbe, 0x0c, 0xc7, 0xa9, 0xbd, 0xcf, 0xb9, 0x38, 0xbe, 0xc0, 0x68, 0x58, 0x3d, 0xfa, 0x99, 0xaa, 0x3c, 0x71, 0xdf, 0x38, 0xbd, 0x8f, 0xa1, 0x2e, 0xbe, 0x78, 0xcf, 0x2b, 0x3e, 0x72, 0xca, 0x36, 0xbe, 0x18, 0xa2, 0xe9, 0xbd, 0x9f, 0x45, 0x77, 0xbe, 0xbb, 0x77, 0xbe, 0xbd, 0x25, 0x9c, 0xba, 0xbd, 0x38, 0x1e, 0x1e, 0xbe, 0x7d, 0x5f, 0x68, 0xbe, 0x4d, 0x98, 0x26, 0x3e, 0x41, 0xea, 0xf0, 0xbd, 0x05, 0xb4, 0x78, 0xbe, 0x17, 0x03, 0x6a, 0x3d, 0xcd, 0xcf, 0x83, 0xbe, 0xbf, 0xf0, 0xc2, 0xbd, 0xb1, 0x5d, 0x9e, 0xbe, 0x03, 0xd2, 0x80, 0x3b, 0x66, 0xf8, 0x65, 0x3e, 0x47, 0x2f, 0x97, 0x3d, 0x14, 0xe9, 0xf7, 0xbe, 0x07, 0x0c, 0xaf, 0x3b, 0x8a, 0xca, 0xa4, 0xbe, 0xcb, 0xb6, 0x6b, 0x3d, 0x91, 0xf2, 0x81, 0xbd, 0x42, 0x24, 0x6f, 0xbe, 0x23, 0xbf, 0x8e, 0xbe, 0x82, 0x3f, 0xaa, 0x3d, 0xa5, 0xb1, 0xe9, 0xbb, 0x4d, 0x31, 0x4e, 0xbe, 0xba, 0x8c, 0x0e, 0xbe, 0xbe, 0x8a, 0x4f, 0xbe, 0xed, 0x3f, 0x44, 0xbe, 0x12, 0x1a, 0xdb, 0xbe, 0xe0, 0x75, 0xcc, 0x3c, 0x90, 0x12, 0x81, 0xbd, 0x15, 0x16, 0x67, 0xbe, 0x51, 0xd6, 0x12, 0xbe, 0x07, 0x25, 0xa8, 0xbd, 0x05, 0x36, 0x66, 0xbd, 0x4a, 0xfe, 0xb3, 0xbe, 0x8f, 0x0b, 0x89, 0xbd, 0xb2, 0x7c, 0xf5, 0xbd, 0x4b, 0x84, 0xaf, 0xbd, 0x0e, 0xb9, 0x90, 0xbe, 0x07, 0x3a, 0xdf, 0xbb, 0x9d, 0xd7, 0x50, 0xbd, 0x0e, 0x96, 0xda, 0xbd, 0x9c, 0x74, 0xa7, 0x3b, 0xaf, 0x45, 0x6c, 0xbd, 0x73, 0xb8, 0x33, 0x3e, 0x17, 0x3b, 0x74, 0xbe, 0xe0, 0xed, 0xe2, 0xbd, 0x09, 0x16, 0xbb, 0xbb, 0x7f, 0x1e, 0xb9, 0xbd, 0x9f, 0x7c, 0x70, 0xbe, 0x63, 0x85, 0x17, 0xbe, 0x05, 0xf2, 0x51, 0x3d, 0x2d, 0x2b, 0x54, 0xbb, 0x1f, 0x24, 0xdd, 0x3d, 0x51, 0xad, 0x55, 0x3d, 0xf0, 0xb7, 0x36, 0x3b, 0xe5, 0x71, 0xdf, 0xbd, 0x64, 0x46, 0x06, 0xbe, 0xa8, 0xbb, 0x35, 0x3c, 0xf4, 0xe8, 0x21, 0x3c, 0xdf, 0xfe, 0x46, 0xbd, 0x9b, 0xd6, 0x0a, 0x3e, 0x68, 0xd3, 0x08, 0xbe, 0xa3, 0x24, 0x8c, 0xbe, 0xd1, 0x9c, 0xd0, 0xbe, 0x0f, 0x57, 0x93, 0xbe, 0xfe, 0x85, 0x8e, 0xbe, 0x01, 0xfb, 0x03, 0x3e, 0xc2, 0x77, 0xdf, 0xbe, 0x3f, 0x77, 0x52, 0xbe, 0xe2, 0x10, 0xbf, 0xbd, 0x74, 0xc2, 0x3c, 0xbe, 0xe0, 0xd6, 0xa1, 0xbe, 0xb3, 0x49, 0x38, 0xbe, 0xd9, 0xe0, 0x16, 0x3b, 0xf3, 0x18, 0xe5, 0x3c, 0x53, 0x44, 0xfa, 0xbd, 0xbe, 0x3b, 0xfc, 0xbc, 0xd3, 0x56, 0xf2, 0xbd, 0x1e, 0xc2, 0x33, 0xbe, 0x4f, 0x5c, 0xbf, 0xbe, 0xb7, 0xea, 0x98, 0xbe, 0xa5, 0x2c, 0x80, 0xbe, 0xcf, 0x97, 0x10, 0xbe, 0x2b, 0xb4, 0x8d, 0xbd, 0xc7, 0x44, 0xd9, 0x3c, 0x37, 0x3d, 0x9f, 0x3c, 0xd4, 0x70, 0x96, 0xbe, 0x06, 0x14, 0xe2, 0xbd, 0x7f, 0x5c, 0x8b, 0xbe, 0x6f, 0xdc, 0xfe, 0x3c, 0xf8, 0xeb, 0x0a, 0xbd, 0x31, 0xff, 0x89, 0x3d, 0x82, 0x5f, 0x22, 0xbe, 0xc0, 0xb3, 0x54, 0xbe, 0xe8, 0x0c, 0x62, 0x3d, 0xa1, 0x0b, 0xc4, 0xbe, 0x1c, 0xfc, 0x49, 0xbd, 0xa0, 0x0a, 0x78, 0xbe, 0xcf, 0x1e, 0xa6, 0xbe, 0x24, 0xed, 0x0b, 0xbe, 0x2c, 0x30, 0x8d, 0xbc, 0x09, 0x18, 0x0e, 0xbd, 0x8c, 0x86, 0xdc, 0xbe, 0x7b, 0x63, 0x45, 0xbe, 0x9b, 0x2d, 0x48, 0xbe, 0x85, 0xb4, 0x15, 0x3d, 0x8e, 0xce, 0xdd, 0xbb, 0xbd, 0x4a, 0x4e, 0xbe, 0x5b, 0xc9, 0x5e, 0xbb, 0x62, 0x8e, 0x52, 0x3d, 0xff, 0x59, 0xa9, 0xbe, 0xf6, 0x7a, 0xd1, 0xbe, 0xc1, 0x59, 0xfb, 0xbd, 0xfe, 0xf2, 0x23, 0x3d, 0x4b, 0x18, 0xa5, 0xbd, 0xac, 0x17, 0xd4, 0x3d, 0x54, 0xbf, 0xad, 0xbe, 0x3f, 0x0e, 0x9d, 0xbe, 0xa7, 0xdb, 0xf5, 0xbd, 0x8b, 0x62, 0x19, 0xbe, 0xac, 0x78, 0x53, 0xbe, 0x45, 0x1d, 0x22, 0xbe, 0x30, 0x22, 0x30, 0x3e, 0xa4, 0xbd, 0xbc, 0xbe, 0xe5, 0xbd, 0xfc, 0xbe, 0x61, 0x7f, 0xcc, 0xbd, 0xc4, 0xe3, 0x04, 0x3f, 0xf7, 0xf7, 0x7b, 0xc0, 0xc9, 0x42, 0xa8, 0x3f, 0x49, 0xe7, 0x55, 0xc0, 0x4c, 0xdf, 0x62, 0x3e, 0xba, 0x3a, 0x79, 0x3e, 0x5f, 0x63, 0xb2, 0xbf, 0x5a, 0xe8, 0x6f, 0x3f, 0xf5, 0x21, 0xde, 0xc0, 0x07, 0xff, 0xc1, 0x3e, 0xb0, 0xd8, 0xbd, 0x3f, 0xc6, 0xef, 0xcc, 0x3d, 0xb6, 0x53, 0x2a, 0x3e, 0xf1, 0x74, 0x46, 0xc0, 0xad, 0xdc, 0xd4, 0x3f, 0x0a, 0x24, 0x6b, 0xbe, 0x80, 0xdf, 0x30, 0x40, 0x17, 0x35, 0x08, 0x3f, 0x87, 0x75, 0x3b, 0xbf, 0x5c, 0x60, 0xb4, 0x3e, 0xc2, 0xc8, 0x7e, 0x3f, 0x14, 0x9d, 0xe0, 0xbf, 0x79, 0xb5, 0xa2, 0xbf, 0xb8, 0x24, 0xfd, 0x3e, 0x2e, 0x77, 0x14, 0xbc, 0x09, 0x72, 0x91, 0xbe, 0xfa, 0x17, 0x37, 0xc1, 0x04, 0xce, 0x4a, 0x40, 0x45, 0x11, 0xb9, 0xc0, 0xf6, 0x49, 0x88, 0x3f, 0xf3, 0x79, 0xe7, 0x3f, 0xe6, 0xbb, 0x9e, 0x3d, 0x38, 0xe9, 0x2b, 0x3f, 0x8a, 0x29, 0x33, 0x3e, 0xf5, 0x1d, 0xae, 0xc0, 0xd1, 0x0c, 0x83, 0xbf, 0x8b, 0x1e, 0x1c, 0x3f, 0x2e, 0x5c, 0x31, 0x40, 0xe6, 0xe1, 0x56, 0xc0, 0x15, 0x70, 0x05, 0x3f, 0x04, 0xb0, 0xb3, 0xbf, 0xa6, 0xa9, 0x94, 0x3e, 0xc4, 0x1d, 0xea, 0xbc, 0x33, 0x5b, 0xc7, 0xc0, 0x11, 0xea, 0x05, 0xc0, 0xc4, 0x58, 0x05, 0xc0, 0xbe, 0xbb, 0x95, 0x3e, 0xb7, 0xfb, 0x36, 0xc0, 0xd5, 0xb4, 0x5d, 0x3e, 0x28, 0x3f, 0x17, 0xbf, 0xf3, 0x2b, 0xca, 0xbf, 0x41, 0x8c, 0x8e, 0x3e, 0x8b, 0xab, 0x1e, 0x3f, 0xb7, 0xbd, 0x8f, 0x3e, 0x31, 0x5f, 0x2c, 0xbf, 0xd6, 0x5b, 0xc7, 0xc0, 0xe3, 0x29, 0x96, 0xbf, 0x53, 0xef, 0x1d, 0xbf, 0xc3, 0x7e, 0x7b, 0xbe, 0xcc, 0x2f, 0x2a, 0xc0, 0x18, 0x1b, 0x24, 0xbf, 0x3b, 0xf1, 0xbe, 0xbf, 0x9b, 0x12, 0x24, 0x3f, 0x59, 0x73, 0x1b, 0xc0, 0x7a, 0x5f, 0x09, 0x3f, 0x02, 0x1b, 0x13, 0xbf, 0x50, 0x8f, 0x01, 0x3d, 0x9e, 0xae, 0x1c, 0x3e, 0x15, 0x26, 0x55, 0xc0, 0x09, 0x04, 0xbe, 0xc0, 0xb1, 0x61, 0xc3, 0xbf, 0x5a, 0x20, 0xa3, 0x40, 0x0c, 0x0e, 0xbe, 0x3f, 0x29, 0xd6, 0xbb, 0x3f, 0xd5, 0xf6, 0x2d, 0xc0, 0xdc, 0x3e, 0xdb, 0xbf, 0xb1, 0x0c, 0x81, 0x3d, 0x86, 0xeb, 0x84, 0x3e, 0xed, 0x22, 0x9d, 0x3f, 0x44, 0x0a, 0x1c, 0xbd, 0x85, 0x2e, 0x4f, 0xbf, 0xc8, 0x5c, 0xa4, 0xc0, 0x2b, 0x7c, 0x0f, 0xc1, 0xf6, 0xa8, 0x0c, 0xc0, 0x96, 0xb9, 0xc0, 0x3f, 0x0a, 0x38, 0x11, 0x3e, 0x3c, 0x0f, 0xd4, 0x3d, 0x1b, 0x77, 0xc4, 0xbe, 0x86, 0x85, 0x14, 0x41, 0x0b, 0x0f, 0x94, 0xbe, 0x90, 0xb7, 0x5c, 0xbe, 0xc6, 0x46, 0x2c, 0x3c, 0x3d, 0xf8, 0xc6, 0xbd, 0x97, 0xc9, 0x66, 0xbf, 0xb4, 0x99, 0x14, 0x3f, 0xe2, 0x3b, 0x8e, 0xbf, 0x5c, 0x5a, 0x03, 0x3f, 0xff, 0xe0, 0x45, 0xc1, 0x79, 0x3f, 0x62, 0x3e, 0x87, 0x4a, 0x1a, 0x3f, 0x26, 0x47, 0xee, 0x40, 0x81, 0xa9, 0x8f, 0x3e, 0xd2, 0x0b, 0x6b, 0xbc, 0x68, 0xa3, 0x57, 0xbe, 0x42, 0x7c, 0x03, 0xbf, 0xb4, 0xb3, 0x80, 0xbf, 0x0d, 0x36, 0x3d, 0xc0, 0x17, 0x36, 0x27, 0xc0, 0x62, 0xc1, 0xfc, 0xbe, 0x66, 0x7c, 0x39, 0xbf, 0xb3, 0x47, 0x8e, 0xbf, 0x41, 0x75, 0x5d, 0x3e, 0x7b, 0x8c, 0x27, 0x3f, 0x71, 0xca, 0x31, 0xbd, 0x6f, 0x5a, 0x4f, 0xc0, 0xd4, 0x8e, 0x78, 0x3f, 0x25, 0xf6, 0x2d, 0xbf, 0xbf, 0x7d, 0x86, 0x40, 0x50, 0x3d, 0x9a, 0x3f, 0x03, 0xc8, 0xae, 0x40, 0xce, 0xed, 0x2e, 0x3f, 0xbb, 0x09, 0xef, 0x40, 0x58, 0xc3, 0xed, 0xbf, 0x28, 0x45, 0xaa, 0xbe, 0x01, 0x38, 0x2c, 0xbf, 0xb9, 0xfc, 0x96, 0xbf, 0xa1, 0xbe, 0xb8, 0x40, 0xe2, 0x36, 0xff, 0x3f, 0x65, 0x98, 0x57, 0xbf, 0x6e, 0x0c, 0x31, 0xc0, 0x8a, 0x74, 0x4d, 0xbb, 0x7c, 0x2b, 0xab, 0x3f, 0xbf, 0x15, 0xa5, 0x3d, 0x40, 0x38, 0x0e, 0x3f, 0xa6, 0xb3, 0x1a, 0xbf, 0x17, 0x0b, 0x15, 0x40, 0xec, 0x93, 0xc7, 0xbe, 0x86, 0xa8, 0xb0, 0xbc, 0xd5, 0xd6, 0x3a, 0xbf, 0x74, 0x15, 0xfd, 0x3a, 0x32, 0xc5, 0xae, 0x3d, 0x16, 0x04, 0x56, 0xc1, 0x8f, 0xb9, 0x92, 0xc0, 0x0d, 0x50, 0x6a, 0xbe, 0x8c, 0x12, 0x22, 0x3e, 0xb7, 0x0a, 0x19, 0x3c, 0xae, 0xf1, 0xb8, 0x3e, 0x31, 0xf2, 0x11, 0xc0, 0xb1, 0xfa, 0x69, 0xbe, 0x74, 0xb4, 0x78, 0x3e, 0x67, 0xad, 0xba, 0x3d, 0x76, 0x8c, 0x5b, 0xbd, 0x68, 0x8d, 0x2c, 0x3d, 0xaf, 0x33, 0xd0, 0x3e, 0x1a, 0x4f, 0xf4, 0xbf, 0x4e, 0x60, 0xa3, 0x3e, 0xb6, 0xbf, 0xc7, 0xbe, 0x30, 0xe5, 0xdf, 0x3f, 0x39, 0xc8, 0x88, 0xbd, 0x26, 0x44, 0x2e, 0x3f, 0x0e, 0x4a, 0xba, 0xbe, 0x66, 0x76, 0x1b, 0xbf, 0xd7, 0x9e, 0x5e, 0x3e, 0xb0, 0x0d, 0x81, 0x3f, 0xdf, 0x7d, 0x4a, 0xbe, 0xfb, 0x0e, 0x4d, 0xc0, 0x42, 0x35, 0x79, 0xc0, 0x36, 0xb6, 0xab, 0x3e, 0x09, 0x43, 0x02, 0x3d, 0x2c, 0x03, 0xc0, 0x3d, 0x38, 0x59, 0x7d, 0xbe, 0x4b, 0x07, 0x32, 0xbe, 0x97, 0xfe, 0xd6, 0xbf, 0x5f, 0xff, 0x0b, 0xc1, 0xe4, 0x65, 0x02, 0xbf, 0xe6, 0xca, 0x6e, 0x3f, 0xd4, 0x24, 0x91, 0xbf, 0x6d, 0xb7, 0x81, 0x3f, 0x8b, 0xcf, 0x3f, 0x3f, 0x5a, 0x22, 0x7a, 0xbf, 0x19, 0x75, 0x66, 0x3e, 0x96, 0x54, 0xef, 0xbc, 0x6e, 0xc2, 0x5c, 0x3f, 0x75, 0x6e, 0x2e, 0x3f, 0xc7, 0x00, 0x9a, 0x3f, 0x47, 0x79, 0x07, 0x3f, 0x23, 0xa8, 0xa2, 0x3e, 0x77, 0x27, 0x1b, 0xc0, 0xee, 0x71, 0xf7, 0xbe, 0x85, 0xde, 0xa2, 0x3e, 0x8d, 0xf3, 0xaa, 0x3d, 0x31, 0xb7, 0x2a, 0xbf, 0x51, 0x55, 0xa3, 0x3e, 0xa0, 0xe2, 0x91, 0x3f, 0xdc, 0x92, 0x3f, 0x40, 0x60, 0x3b, 0x78, 0x3e, 0x96, 0x04, 0x3f, 0xbf, 0xef, 0xce, 0x3a, 0xc0, 0x1d, 0x8a, 0x17, 0x40, 0x7b, 0xd6, 0x12, 0x41, 0xf9, 0xbe, 0x66, 0xc0, 0x10, 0x80, 0x1f, 0xc0, 0xe4, 0x66, 0xfc, 0x3d, 0x5b, 0x3a, 0x97, 0xbf, 0xe6, 0xf7, 0xe5, 0xbf, 0xab, 0x18, 0xc4, 0xc1, 0xf8, 0xa4, 0xe7, 0x3f, 0xf7, 0x3a, 0x3a, 0xbf, 0x18, 0xd7, 0x75, 0xbf, 0x37, 0xab, 0x93, 0xbe, 0x5f, 0x68, 0x07, 0xc1, 0xfb, 0xb3, 0xa7, 0x3e, 0x1a, 0xb8, 0x1a, 0x40, 0x72, 0xb7, 0x74, 0xc0, 0xd4, 0x33, 0xe8, 0x3e, 0x02, 0x96, 0x58, 0x3f, 0x1a, 0x5d, 0xa9, 0xc0, 0xfa, 0x40, 0x84, 0x3e, 0xe5, 0x87, 0x09, 0xc0, 0x59, 0x8b, 0xb2, 0x3f, 0xb6, 0xc4, 0x27, 0x3e, 0xf2, 0x66, 0x1c, 0xbe, 0xcc, 0xc2, 0x01, 0xbf, 0xce, 0xaa, 0x13, 0xc0, 0x0e, 0x9c, 0x85, 0xc0, 0xdc, 0x06, 0xcd, 0xbe, 0x81, 0x0b, 0x90, 0x3f, 0x36, 0xe6, 0x4d, 0xc0, 0xfb, 0x49, 0x95, 0xbf, 0xfc, 0x0e, 0x80, 0x40, 0xfb, 0x87, 0x11, 0x40, 0x2d, 0x37, 0xd2, 0x3e, 0xb1, 0x8e, 0x6e, 0xc0, 0xef, 0xfa, 0x3d, 0x3f, 0xe2, 0xd5, 0x5f, 0x3e, 0x2e, 0x64, 0x49, 0xbe, 0xda, 0x53, 0x07, 0xbf, 0x5e, 0x6f, 0x77, 0xc0, 0x8f, 0x40, 0x79, 0xbf, 0xa8, 0x6b, 0x2e, 0xbf, 0xa4, 0x7f, 0xd9, 0x3e, 0x59, 0x89, 0xd9, 0xbf, 0x22, 0xad, 0x2b, 0x3e, 0x4e, 0x3d, 0x2d, 0x3f, 0x5b, 0x28, 0x27, 0xbf, 0xb2, 0x19, 0xf3, 0xbe, 0x2e, 0x42, 0x1a, 0xbf, 0xef, 0x4f, 0xd5, 0xbf, 0xa0, 0xe2, 0x09, 0xbf, 0xa7, 0x52, 0xe8, 0x3d, 0xdd, 0x26, 0x1b, 0xbf, 0x55, 0xc6, 0x3f, 0x3d, 0x7e, 0x3e, 0x51, 0x40, 0x22, 0x2c, 0x72, 0x3f, 0x0e, 0x28, 0x5b, 0xc0, 0xac, 0x38, 0x99, 0xbf, 0x24, 0x48, 0x86, 0xc1, 0x42, 0x6b, 0x0a, 0xbf, 0x49, 0x9a, 0x19, 0xbf, 0x37, 0xb0, 0x1c, 0xbe, 0x46, 0x35, 0x0c, 0x3f, 0x9e, 0x7d, 0x1a, 0xc1, 0xa7, 0xa3, 0xcd, 0xbe, 0xe0, 0xe5, 0x13, 0x3c, 0x92, 0x47, 0x76, 0xbf, 0x1a, 0xdf, 0x1e, 0xbf, 0x56, 0xaf, 0x11, 0x3f, 0x6d, 0x82, 0x66, 0x3f, 0xa0, 0xd3, 0xa4, 0xbe, 0x6d, 0xaa, 0x6b, 0x3d, 0x28, 0x56, 0x6d, 0xbd, 0x35, 0xd9, 0x97, 0xbe, 0x6e, 0x57, 0x93, 0xc0, 0x6c, 0x38, 0xed, 0x3e, 0x5e, 0xf0, 0x30, 0x3f, 0xc0, 0x6f, 0x87, 0xc0, 0x06, 0x80, 0xc1, 0xbe, 0x8b, 0x72, 0x58, 0x40, 0x43, 0x8f, 0x95, 0xbf, 0xa6, 0xdd, 0x4f, 0xc0, 0x3f, 0x0c, 0x9e, 0x3f, 0x59, 0x1e, 0x67, 0xc0, 0x85, 0x6a, 0xf2, 0xc0, 0x54, 0x1b, 0x4b, 0xbf, 0x50, 0xc6, 0x7e, 0x40, 0x68, 0x44, 0x3e, 0xc0, 0xcc, 0x3d, 0xe4, 0xbe, 0xa7, 0xb2, 0x1a, 0xc1, 0x44, 0x9a, 0xee, 0xc0, 0x5b, 0xf2, 0xb2, 0xbf, 0xd8, 0x55, 0x41, 0xbf, 0x4b, 0x9a, 0xc6, 0xbf, 0x5e, 0x6b, 0xd2, 0x3f, 0x2d, 0xca, 0x1a, 0xbe, 0x9f, 0x67, 0xb1, 0xbe, 0xd8, 0x43, 0x42, 0xc0, 0xc0, 0x86, 0x81, 0x40, 0x26, 0x3a, 0x44, 0x3f, 0x44, 0x37, 0x16, 0xbf, 0x2e, 0xc2, 0xb9, 0xbf, 0x7b, 0xbe, 0x41, 0xbf, 0x44, 0x1c, 0x53, 0xbd, 0x79, 0x67, 0x0f, 0x3f, 0x92, 0x7e, 0xbe, 0xbf, 0x52, 0x83, 0xc2, 0xbe, 0x93, 0xc9, 0x01, 0x3f, 0x67, 0xe1, 0xed, 0x3e, 0xd5, 0x61, 0x83, 0xc0, 0xc5, 0x42, 0x51, 0xbf, 0x5c, 0x60, 0xcc, 0x3e, 0x6c, 0x37, 0xab, 0xc0, 0xc4, 0xf5, 0xdd, 0xbd, 0xfb, 0xb2, 0x7c, 0x40, 0xb1, 0xc0, 0x8b, 0xbf, 0xc5, 0x50, 0x7f, 0x3f, 0x3b, 0x44, 0x5c, 0xbb, 0x95, 0xfa, 0xce, 0x3e, 0x82, 0x7a, 0xdb, 0xc0, 0x6d, 0x2a, 0xc8, 0xc1, 0x41, 0x58, 0x87, 0xc0, 0xd7, 0x30, 0x23, 0xbf, 0x24, 0x45, 0x9e, 0xc0, 0xa9, 0xd3, 0xef, 0xbf, 0xfe, 0x42, 0x03, 0xc0, 0x4f, 0x59, 0x17, 0x3e, 0xbb, 0x71, 0x9e, 0x3e, 0x97, 0x0a, 0x31, 0xbf, 0x73, 0x98, 0x24, 0xbf, 0xaa, 0xd1, 0x6e, 0xbf, 0xee, 0xb1, 0xbf, 0xbd, 0x29, 0x3d, 0x53, 0xbc, 0x7c, 0xcd, 0xaa, 0x3e, 0x89, 0xa5, 0x03, 0xbc, 0x2d, 0x02, 0x04, 0xc1, 0xc2, 0xb1, 0x94, 0xc0, 0x1a, 0x7b, 0x1f, 0xbf, 0xae, 0xa8, 0x3d, 0x40, 0x19, 0xec, 0xc9, 0xbc, 0x5c, 0xcc, 0x79, 0xbd, 0x09, 0x54, 0x52, 0xbf, 0x11, 0x97, 0x50, 0xbf, 0xb8, 0x58, 0x02, 0xc0, 0x2f, 0xa8, 0x44, 0xbf, 0x6f, 0xe0, 0x74, 0x3e, 0x35, 0xa8, 0xe2, 0x3e, 0x88, 0x27, 0xe4, 0xbd, 0x14, 0xb2, 0xa8, 0xc0, 0x2e, 0x7a, 0x98, 0xbf, 0x46, 0x42, 0x02, 0x40, 0x92, 0x79, 0xd6, 0xbf, 0xcf, 0x7d, 0x87, 0x40, 0xab, 0x73, 0x29, 0x3f, 0xb2, 0xd8, 0x85, 0xc0, 0xeb, 0xe3, 0xcc, 0x3d, 0x18, 0xec, 0x80, 0xc0, 0xda, 0xe9, 0xfb, 0x3e, 0x0c, 0x3a, 0x9e, 0xbe, 0x5f, 0xdc, 0x22, 0xc0, 0x40, 0x85, 0xa7, 0xbf, 0x8e, 0x49, 0x03, 0x3f, 0xf9, 0xa8, 0xc6, 0x3f, 0x74, 0x53, 0xbf, 0x3e, 0x1c, 0xab, 0x45, 0x3b, 0x4d, 0x9c, 0x03, 0x3e, 0x66, 0xfa, 0xce, 0xbe, 0xe0, 0x34, 0x90, 0xbf, 0xbb, 0x70, 0x25, 0xbe, 0x7b, 0x5f, 0x2c, 0xc0, 0x3c, 0xce, 0x8a, 0xbf, 0x1c, 0xbd, 0x1a, 0x3f, 0x80, 0x76, 0x86, 0xbc, 0xb0, 0x03, 0x8f, 0xbf, 0x77, 0xb1, 0x5e, 0x3e, 0x06, 0x6a, 0x90, 0x3e, 0x0c, 0x6b, 0x87, 0xc0, 0xae, 0xe0, 0x4a, 0xbf, 0x95, 0x62, 0x36, 0xbf, 0x8b, 0xfd, 0x34, 0x3f, 0x8d, 0x1e, 0x09, 0x3f, 0xa0, 0x33, 0x67, 0x3e, 0xb8, 0x88, 0x42, 0xbe, 0xcf, 0x10, 0x8d, 0x3e, 0x54, 0x9d, 0x8b, 0xbf, 0x7c, 0x23, 0x5c, 0x3f, 0xf6, 0x74, 0x43, 0xbf, 0x7a, 0x5b, 0x47, 0xc0, 0xab, 0x09, 0xb7, 0xbf, 0x9d, 0xbf, 0x57, 0x3f, 0x05, 0xfd, 0x35, 0x3f, 0x5b, 0x18, 0x7b, 0x3e, 0x7c, 0xa6, 0x8f, 0x3e, 0x04, 0x21, 0xfe, 0xbc, 0xb8, 0x2e, 0x57, 0x3f, 0xfa, 0xb2, 0x61, 0xbf, 0x13, 0x2e, 0x63, 0xbf, 0xa6, 0xf4, 0x03, 0x3f, 0x08, 0x3f, 0xa5, 0xbf, 0xaa, 0xf0, 0x0b, 0xc0, 0x26, 0x29, 0xdd, 0xbf, 0xa9, 0x5f, 0x83, 0xbf, 0xcf, 0x17, 0x18, 0xc0, 0xe0, 0xaa, 0xe3, 0xbe, 0xd6, 0xbe, 0x0a, 0xc0, 0x6b, 0x1c, 0x27, 0xbf, 0x26, 0xf7, 0x3b, 0x3d, 0xf4, 0xb6, 0x25, 0xbf, 0xdb, 0x46, 0xad, 0xbe, 0xde, 0x1d, 0x64, 0xbf, 0x41, 0x89, 0x3e, 0xbf, 0x46, 0x11, 0x9e, 0x3e, 0x6b, 0x2e, 0xa2, 0xbf, 0xb3, 0xd8, 0x78, 0x3d, 0xe1, 0x2f, 0x8b, 0xbe, 0x92, 0x65, 0x69, 0xbd, 0x56, 0xc4, 0xbe, 0x3e, 0x6a, 0xb2, 0x94, 0xbf, 0x94, 0x92, 0x55, 0xc0, 0x7b, 0x57, 0x08, 0x3e, 0x57, 0x87, 0xf1, 0x3f, 0x2f, 0x3b, 0x5d, 0x3e, 0x32, 0x68, 0x25, 0xbd, 0x78, 0x1e, 0x4c, 0xc0, 0x1e, 0x67, 0xa8, 0xbf, 0x55, 0xcd, 0x41, 0x3f, 0xcb, 0xd2, 0xaf, 0x3e, 0x5b, 0x4c, 0x41, 0x3f, 0xe2, 0x90, 0x58, 0xbe, 0x64, 0x6f, 0x14, 0x3d, 0x01, 0xf7, 0xdf, 0x3f, 0xf9, 0xa4, 0x9e, 0x3d, 0xc5, 0xc1, 0x19, 0xbf, 0xf7, 0x6f, 0xfe, 0x3f, 0xf2, 0x72, 0x8c, 0xbf, 0x73, 0xe3, 0x53, 0xbf, 0x46, 0x91, 0x6a, 0x3e, 0x01, 0xf7, 0x96, 0x3e, 0xe6, 0x88, 0x0c, 0x3d, 0x46, 0xcd, 0xb7, 0xbe, 0x19, 0xe9, 0x4e, 0x3e, 0x04, 0x90, 0x6f, 0x3e, 0x57, 0x5c, 0x1c, 0x3f, 0x0d, 0xef, 0x82, 0x3d, 0x38, 0x6f, 0x9f, 0x3f, 0x2e, 0x69, 0x96, 0x3f, 0x0c, 0xc4, 0x3a, 0xc0, 0x7a, 0x70, 0x07, 0x3f, 0xe5, 0x46, 0x5d, 0xc0, 0xec, 0xda, 0xe6, 0xbf, 0x62, 0xaa, 0x98, 0xbd, 0xff, 0xb0, 0xaa, 0xbf, 0xb8, 0xb3, 0x1a, 0xc1, 0x8e, 0xbe, 0xd9, 0x3f, 0x8a, 0xe9, 0x87, 0xbd, 0xfd, 0x88, 0x0b, 0x3f, 0x01, 0xe7, 0x60, 0x3f, 0xcb, 0xcb, 0x31, 0xc0, 0xd9, 0xe8, 0xa9, 0xc0, 0x48, 0xd1, 0x24, 0x3f, 0x8e, 0x61, 0x30, 0xbf, 0x55, 0x18, 0x1e, 0xbd, 0x36, 0xb8, 0x66, 0xbf, 0x51, 0x8a, 0x8e, 0xbf, 0xb8, 0x48, 0x86, 0xbf, 0xe2, 0x3f, 0xd3, 0xbf, 0x28, 0x11, 0x90, 0xbf, 0x38, 0x9f, 0x76, 0x3e, 0x7f, 0x98, 0xf6, 0xbf, 0xe2, 0x7c, 0xcc, 0x3c, 0x83, 0xce, 0x2f, 0xbf, 0x2f, 0x82, 0xeb, 0xbf, 0x77, 0xda, 0x12, 0xbf, 0xc8, 0xf0, 0x89, 0x3e, 0xd7, 0x41, 0x72, 0xbf, 0x52, 0xae, 0x5a, 0xbe, 0xa7, 0x04, 0xe1, 0xbf, 0x00, 0xc0, 0x68, 0x3e, 0xae, 0x59, 0x1a, 0x3e, 0x7b, 0x1a, 0xb2, 0x3e, 0xb6, 0x35, 0x66, 0xc0, 0x0d, 0xb0, 0xb6, 0x3e, 0xad, 0x48, 0xda, 0xbe, 0x8f, 0x08, 0x8b, 0x3e, 0x25, 0x0c, 0xa3, 0x3f, 0x89, 0x47, 0x31, 0x3f, 0x20, 0x63, 0x34, 0xbe, 0x40, 0xd6, 0x81, 0xbf, 0x33, 0x31, 0xf0, 0x3f, 0x78, 0x7f, 0xea, 0xbe, 0x0e, 0x3a, 0x2f, 0x40, 0x4d, 0x7a, 0xa3, 0x3e, 0xfb, 0x6d, 0x02, 0x3e, 0xf0, 0x7c, 0xba, 0x3d, 0x10, 0xf7, 0x93, 0xbc, 0xa6, 0xfa, 0x90, 0xc0, 0x2c, 0x19, 0xf4, 0x3d, 0xea, 0x84, 0xad, 0xbf, 0x07, 0x1a, 0x28, 0x3f, 0xa4, 0x8d, 0x0a, 0x3f, 0x09, 0x34, 0xe2, 0xbf, 0x8c, 0xf3, 0xab, 0x3e, 0xdd, 0x4d, 0x83, 0x3e, 0xe9, 0x3b, 0x39, 0xbe, 0x44, 0x81, 0x26, 0xbe, 0x57, 0xe1, 0xfb, 0xbe, 0x45, 0xcd, 0x80, 0xbf, 0x1d, 0xa6, 0x04, 0x3d, 0x5e, 0x14, 0x9c, 0x3f, 0x57, 0xa9, 0xf2, 0xbe, 0x2b, 0x74, 0x46, 0x3f, 0x16, 0x3e, 0x0b, 0xc0, 0xf8, 0xd8, 0xad, 0xbd, 0xaf, 0xfb, 0x1a, 0x3f, 0x1c, 0xf6, 0x09, 0x3f, 0x75, 0x72, 0x2a, 0x40, 0x77, 0x54, 0xef, 0xbf, 0xbc, 0x1d, 0x8f, 0x40, 0xcd, 0x7e, 0xd4, 0xbe, 0x8c, 0x8c, 0x3f, 0x3f, 0xa9, 0x89, 0x8c, 0xbf, 0x2a, 0x9d, 0x80, 0xc0, 0xfd, 0x6c, 0xa1, 0xc0, 0xdd, 0x69, 0xc1, 0x3e, 0x57, 0x86, 0xbd, 0x3f, 0xe6, 0xd4, 0x76, 0x3e, 0x7e, 0xf4, 0xb9, 0xbf, 0xf4, 0x1f, 0x36, 0xc1, 0xff, 0xa8, 0xbb, 0x3f, 0x16, 0xee, 0x8d, 0xbf, 0x94, 0xcc, 0x2a, 0xbf, 0x30, 0x56, 0x05, 0x3f, 0x27, 0x13, 0x2b, 0xc0, 0xf0, 0xb0, 0x19, 0x3f, 0x09, 0xb9, 0xa3, 0x40, 0x63, 0xe7, 0x82, 0x3e, 0x13, 0x82, 0xa0, 0xbf, 0xf4, 0x3e, 0xa9, 0xbf, 0xee, 0xaf, 0xff, 0x3f, 0x19, 0xc9, 0x2d, 0xbf, 0xb9, 0x1e, 0xc7, 0x3d, 0x23, 0x90, 0xb5, 0xc0, 0x31, 0x20, 0x6f, 0x3f, 0x1c, 0xe0, 0xe2, 0xbe, 0xdd, 0x51, 0x00, 0x40, 0xe8, 0x8c, 0xe2, 0xbd, 0xd2, 0x3c, 0x28, 0x3f, 0xd5, 0x07, 0xc1, 0xbf, 0x76, 0xb3, 0x6d, 0x3e, 0x9c, 0xa5, 0x1e, 0x3f, 0x3f, 0x8d, 0xd0, 0xbe, 0x05, 0x24, 0xde, 0x3f, 0x8e, 0x83, 0x08, 0xbf, 0x1a, 0x16, 0x0e, 0xbf, 0xa6, 0x7d, 0x73, 0xbf, 0xe3, 0x0e, 0xb7, 0x3d, 0x97, 0xf8, 0x44, 0xbf, 0x82, 0x57, 0x9d, 0xbf, 0xfc, 0x1b, 0xaa, 0xbe, 0x8a, 0x52, 0x89, 0xc0, 0x4b, 0x17, 0xbc, 0xbe, 0x0d, 0x38, 0x3b, 0x40, 0x70, 0x46, 0x9b, 0xbf, 0xd5, 0xc4, 0xa8, 0xbf, 0xd7, 0x8f, 0x7a, 0x3f, 0xef, 0xd0, 0xe3, 0x3e, 0xb0, 0x58, 0xbd, 0x3e, 0xc3, 0xb7, 0x77, 0x3f, 0xe5, 0x07, 0xc7, 0xbf, 0xd1, 0xc3, 0x8d, 0xbf, 0x4d, 0x6d, 0xa0, 0xbf, 0xc9, 0x80, 0x4a, 0xbf, 0x76, 0x75, 0x0c, 0xbf, 0xbd, 0x48, 0x9f, 0xbd, 0x16, 0x36, 0x7a, 0xbf, 0x47, 0x5a, 0x8d, 0x3f, 0xac, 0x27, 0x8f, 0x3f, 0xc2, 0xb9, 0xb3, 0xbe, 0xb1, 0xfc, 0xe7, 0xbe, 0xe3, 0x3a, 0x05, 0x3f, 0x99, 0x8f, 0x34, 0x40, 0x0d, 0x4f, 0x3e, 0x3f, 0xec, 0xac, 0x7f, 0x3d, 0xe5, 0x6d, 0xde, 0x3e, 0xb7, 0xec, 0xbe, 0xbe, 0x88, 0x45, 0x31, 0x40, 0x3d, 0x9b, 0x88, 0x3f, 0x38, 0xba, 0xcf, 0x3e, 0x4f, 0x42, 0xc4, 0xc0, 0x11, 0x28, 0x61, 0x3d, 0x61, 0x9b, 0x8e, 0xbe, 0x04, 0x31, 0x33, 0xc0, 0xb7, 0xe8, 0xf0, 0xbf, 0x89, 0xce, 0x6d, 0xbf, 0xb0, 0x59, 0xac, 0x3e, 0x0a, 0x0b, 0xdb, 0xbe, 0x5a, 0xf2, 0x09, 0x3e, 0xff, 0x75, 0x36, 0xbe, 0xd1, 0x12, 0x46, 0x3f, 0x14, 0x77, 0xc1, 0xbe, 0xee, 0x0f, 0xd0, 0x3f, 0xe2, 0x1b, 0x64, 0xc0, 0xcc, 0x7c, 0x7f, 0xc0, 0x39, 0x68, 0x0f, 0xbf, 0x35, 0xbe, 0xaf, 0xbf, 0x7d, 0x52, 0xc1, 0x3f, 0xd2, 0x26, 0xc4, 0xbf, 0xc1, 0x52, 0x6f, 0x3d, 0x57, 0xd5, 0x08, 0xbf, 0x26, 0x5c, 0xe4, 0xbd, 0x8a, 0xe5, 0xd2, 0xbe, 0xb5, 0xff, 0xfe, 0x3d, 0x8b, 0x4b, 0x50, 0x3e, 0x35, 0x87, 0xcd, 0xbe, 0x1b, 0xae, 0x2b, 0x3f, 0x08, 0x28, 0x40, 0x3f, 0xc7, 0x47, 0x63, 0x3f, 0x65, 0xd6, 0x8b, 0x3e, 0x67, 0xdc, 0xe4, 0xbf, 0x44, 0x1a, 0x19, 0x3f, 0x7c, 0x50, 0x26, 0x3c, 0x1c, 0xef, 0x94, 0xbe, 0xc6, 0xe8, 0xff, 0x3e, 0x3f, 0xb4, 0x41, 0xbf, 0xcd, 0x8d, 0xc4, 0xbe, 0x0c, 0x09, 0x09, 0x40, 0x82, 0x1e, 0x63, 0xbf, 0x5d, 0xbd, 0x40, 0xc0, 0x43, 0x44, 0x99, 0x3b, 0x18, 0x59, 0xa8, 0x3d, 0x90, 0x62, 0xc4, 0x3d, 0xd5, 0xfa, 0xe0, 0x3c, 0x8d, 0x85, 0x05, 0x3e, 0x20, 0xe8, 0xd5, 0x3f, 0x6b, 0xbd, 0x92, 0xbc, 0x13, 0x32, 0xda, 0xbe, 0xf2, 0x71, 0x42, 0xc0, 0xfc, 0x2f, 0x8f, 0x3e, 0x7f, 0x7b, 0x0d, 0x3f, 0x76, 0x48, 0xef, 0x3e, 0xf6, 0x96, 0xef, 0xbe, 0x6f, 0x0d, 0x89, 0x3c, 0x4c, 0x17, 0x52, 0x3d, 0x65, 0xef, 0x17, 0xbe, 0x42, 0x06, 0x11, 0xbd, 0xb5, 0x49, 0x55, 0xbe, 0xc3, 0x49, 0xc6, 0xbc, 0xf9, 0x04, 0x84, 0xbe, 0xa4, 0xf9, 0x73, 0xbe, 0xab, 0x79, 0x0d, 0xbe, 0x7f, 0x45, 0x47, 0xbe, 0xda, 0x5c, 0x48, 0xbe, 0xeb, 0x2d, 0x19, 0xbd, 0xd4, 0x8a, 0xc5, 0xbd, 0xe7, 0x80, 0x13, 0xbe, 0xf3, 0xbc, 0x78, 0x3c, 0xa9, 0xdd, 0xa8, 0xbd, 0xb9, 0x45, 0xc7, 0x3d, 0x1d, 0xd7, 0x61, 0xbe, 0x0b, 0x8d, 0x80, 0xbd, 0x86, 0x6e, 0x6b, 0x3c, 0x8d, 0x4e, 0x2f, 0xbe, 0x53, 0xed, 0x7f, 0xbe, 0x10, 0x35, 0x14, 0x3c, 0x2f, 0xfa, 0x01, 0xbe, 0x7e, 0x2e, 0xbc, 0xbc, 0x89, 0x2a, 0x0a, 0xbe, 0xde, 0xe6, 0xa1, 0xbd, 0x41, 0xeb, 0x8e, 0xbe, 0xa4, 0xa6, 0x19, 0xbd, 0x54, 0x9f, 0x34, 0x3d, 0x02, 0x3e, 0x7b, 0xbe, 0xb2, 0x7d, 0x3c, 0xbe, 0x47, 0xa7, 0x92, 0x3b, 0x44, 0xb7, 0x25, 0xbe, 0x8b, 0x30, 0xe8, 0xbd, 0x15, 0x7b, 0x73, 0x3e, 0xe6, 0x20, 0x4c, 0xbe, 0xda, 0xe0, 0xe0, 0xbd, 0xb2, 0x01, 0x2e, 0x3b, 0x2a, 0x1b, 0x32, 0xbe, 0xf3, 0x62, 0x24, 0xbe, 0x3d, 0x7b, 0xc3, 0x3c, 0x30, 0xd1, 0x4c, 0xbe, 0xe6, 0x99, 0xf0, 0x3b, 0x13, 0x2f, 0xc1, 0xbd, 0xcc, 0xe3, 0x1b, 0xbe, 0xc5, 0xcb, 0xc6, 0x3d, 0x41, 0x38, 0xb6, 0xbd, 0xb6, 0x84, 0xc2, 0xbd, 0x9e, 0x3e, 0xee, 0x3c, 0xed, 0xae, 0xec, 0xbd, 0x3b, 0xdf, 0xee, 0xbd, 0xde, 0x3d, 0xd7, 0xbc, 0x2d, 0x87, 0x82, 0xbe, 0x65, 0x83, 0xea, 0x3d, 0xe1, 0x88, 0xb5, 0x3d, 0x85, 0x2a, 0xb9, 0x3c, 0xa7, 0xfc, 0xf4, 0xbd, 0x26, 0x61, 0x82, 0xbe, 0xe0, 0x06, 0xe2, 0x3d, 0xac, 0x08, 0xa3, 0xbd, 0x37, 0x55, 0x09, 0xbd, 0x34, 0x65, 0x2c, 0x3c, 0xb1, 0xeb, 0x8e, 0xbc, 0x33, 0x20, 0xbe, 0xbd, 0xd0, 0xd4, 0x18, 0xc2, 0xe9, 0x2c, 0x24, 0xbf, 0x3d, 0x46, 0x8d, 0xbe, 0x21, 0x81, 0xd8, 0x3d, 0x5c, 0x11, 0x06, 0xc1, 0xa0, 0x18, 0xd2, 0xc0, 0x6b, 0xc0, 0xaf, 0xbe, 0xfa, 0x96, 0xd7, 0xbb, 0xec, 0xc0, 0x86, 0xbe, 0x4b, 0x39, 0x9b, 0x3f, 0xf1, 0x9f, 0xfc, 0x3e, 0x57, 0xcb, 0x33, 0xc0, 0x81, 0xd9, 0xaa, 0xbe, 0x00, 0x9c, 0x33, 0xbd, 0xdd, 0x96, 0xc2, 0x3d, 0x54, 0xb6, 0x20, 0xbf, 0xe9, 0x32, 0x86, 0xbf, 0x77, 0x31, 0x79, 0xbf, 0xe0, 0xd6, 0x92, 0x3e, 0x92, 0x5e, 0x84, 0x3d, 0x28, 0xff, 0x21, 0xbe, 0x5b, 0x3f, 0x70, 0x40, 0xec, 0x79, 0x0c, 0x3f, 0xb0, 0x3d, 0x09, 0xc2, 0xcd, 0xe9, 0xc0, 0xbf, 0x1b, 0xea, 0x2f, 0x3f, 0x60, 0x7e, 0xcf, 0xc1, 0xea, 0x90, 0xa9, 0xbe, 0x4b, 0x0b, 0xad, 0x3f, 0x51, 0x4c, 0x29, 0x40, 0x41, 0x81, 0x63, 0x3c, 0x06, 0xeb, 0xfd, 0xbf, 0x52, 0x05, 0x9b, 0xc0, 0xf4, 0xaa, 0x8d, 0xbf, 0x0e, 0x67, 0xa1, 0xc0, 0x96, 0xb6, 0x19, 0xc0, 0x13, 0x33, 0xbf, 0xc0, 0xbc, 0x51, 0xf3, 0xbd, 0x25, 0x9d, 0x9c, 0xbe, 0x92, 0x07, 0x54, 0xbf, 0x94, 0xd0, 0x2d, 0x41, 0x2b, 0xbd, 0x91, 0xbf, 0x11, 0x77, 0xef, 0xbe, 0x30, 0xba, 0x20, 0xc0, 0xe5, 0xd3, 0xc0, 0xbf, 0x04, 0x08, 0x1e, 0x3e, 0xd2, 0xa0, 0x03, 0xc0, 0xe1, 0x0f, 0xf2, 0xbe, 0x8b, 0xb2, 0xc0, 0xbd, 0xba, 0x72, 0xd2, 0xbe, 0x6f, 0x3c, 0xbd, 0x3b, 0x94, 0x5b, 0xe2, 0x3e, 0xd4, 0x89, 0x42, 0x3f, 0x04, 0x11, 0xa8, 0x3f, 0xc6, 0xc5, 0xcc, 0x3e, 0xc8, 0xba, 0xd4, 0x3d, 0x37, 0xc1, 0xd9, 0x40, 0x8c, 0x52, 0xb3, 0xbf, 0x1e, 0x75, 0x14, 0x3e, 0xd6, 0xf0, 0xa9, 0xbe, 0x38, 0x33, 0x04, 0x40, 0x5f, 0xbe, 0x3a, 0xbe, 0x95, 0xb8, 0x5a, 0xbf, 0x75, 0x68, 0x27, 0xbf, 0x36, 0x69, 0x0c, 0xbf, 0x3e, 0x00, 0x0c, 0x40, 0x7e, 0x43, 0xd9, 0x3f, 0x5c, 0x69, 0x6d, 0x3f, 0x84, 0x70, 0x30, 0xbf, 0x70, 0x25, 0x42, 0x3c, 0x2e, 0xa8, 0x68, 0xbf, 0x06, 0xbe, 0x75, 0xc0, 0x76, 0x15, 0x5e, 0x40, 0x9a, 0xd9, 0x04, 0xbf, 0xb9, 0xd6, 0x9a, 0x3d, 0xcc, 0xb5, 0xaa, 0x3d, 0xdd, 0xc5, 0x00, 0x3f, 0x63, 0xa6, 0xea, 0x3e, 0xd4, 0xcf, 0x14, 0x3f, 0xd4, 0x68, 0x0a, 0x3f, 0x41, 0x34, 0x74, 0xbf, 0x1b, 0xdf, 0x03, 0x3c, 0x26, 0x09, 0x0d, 0x3f, 0xf7, 0xf6, 0xcb, 0xbe, 0x3d, 0x09, 0xeb, 0xbd, 0x8f, 0x29, 0x61, 0x3f, 0xac, 0x57, 0xa6, 0x3e, 0xb4, 0x70, 0xff, 0xbe, 0x4a, 0xfc, 0xb3, 0x3f, 0x29, 0xed, 0x26, 0xbf, 0xd9, 0xcd, 0x2c, 0x40, 0xe6, 0x63, 0x14, 0x3e, 0x7d, 0xc3, 0x02, 0xbf, 0x04, 0x2e, 0x51, 0x3f, 0x8a, 0xaf, 0x14, 0x40, 0x9a, 0x98, 0x65, 0xbf, 0x07, 0xb8, 0x49, 0x3f, 0xf5, 0x75, 0xb2, 0xbe, 0x19, 0xae, 0x1c, 0x3e, 0x9f, 0xff, 0x38, 0xbe, 0xec, 0x3f, 0xd6, 0x3e, 0x38, 0xd7, 0x02, 0x40, 0xc2, 0x24, 0x1e, 0x3f, 0x76, 0x6d, 0x76, 0xbe, 0xd6, 0xdc, 0x9a, 0xbf, 0xae, 0x33, 0x60, 0x3f, 0xdb, 0x1c, 0x6b, 0xbe, 0xa6, 0x82, 0xc4, 0xbe, 0xd0, 0x7a, 0x31, 0xbf, 0x0b, 0x9b, 0x9e, 0x3f, 0xd4, 0x9c, 0x8e, 0xbe, 0xf2, 0x4a, 0xb7, 0x3f, 0xf2, 0x4b, 0x74, 0xbf, 0xb6, 0x6c, 0x91, 0xbe, 0xfa, 0x5a, 0xd4, 0xbe, 0x93, 0xbf, 0x3a, 0xc0, 0x87, 0x95, 0x12, 0xbe, 0x88, 0xbd, 0x32, 0xbe, 0x8c, 0xdd, 0xd5, 0xbd, 0xc2, 0x34, 0xe0, 0xbf, 0x05, 0xfb, 0x82, 0x3f, 0xa1, 0xdd, 0xf2, 0xbd, 0x56, 0x5f, 0x6a, 0xbe, 0x32, 0xb0, 0x14, 0xbf, 0xb0, 0x6d, 0x07, 0x3f, 0x08, 0x29, 0xe0, 0xbd, 0xc0, 0x18, 0x89, 0x3f, 0xc7, 0xc8, 0x43, 0x3f, 0x70, 0x79, 0x3b, 0x3d, 0x3c, 0x5b, 0xad, 0x3f, 0x6e, 0xbb, 0x1f, 0x40, 0xe4, 0x4c, 0x49, 0x3f, 0x38, 0xff, 0x06, 0xbe, 0xfd, 0x6c, 0x90, 0x3f, 0xd2, 0x31, 0x8a, 0xc0, 0xc1, 0xb2, 0x3e, 0xbf, 0xa9, 0x90, 0xa4, 0xbf, 0xd1, 0x4c, 0x21, 0x3f, 0x36, 0x07, 0x27, 0xbf, 0xd9, 0xe2, 0x73, 0xc0, 0xee, 0xd8, 0x02, 0xc0, 0x99, 0x7f, 0x9d, 0x40, 0x2f, 0x88, 0xc1, 0xbf, 0x82, 0xa6, 0xec, 0x3d, 0x18, 0x73, 0x37, 0xc1, 0x8c, 0x2e, 0x15, 0x3a, 0xfe, 0xbc, 0x5b, 0x3e, 0x96, 0x89, 0x3b, 0xbf, 0x7c, 0x97, 0x06, 0x41, 0x7d, 0x82, 0xd8, 0xbd, 0xca, 0x22, 0xa8, 0xc0, 0x66, 0x26, 0x4c, 0x3f, 0xfa, 0xa8, 0xa8, 0x3f, 0x44, 0xeb, 0xc9, 0xbf, 0xc0, 0x8b, 0x65, 0xbd, 0x37, 0x89, 0x7a, 0xc0, 0xc3, 0xef, 0xc1, 0x40, 0x78, 0x67, 0x9a, 0xbf, 0x80, 0x42, 0xab, 0xbf, 0x63, 0xd8, 0x93, 0x3f, 0xc6, 0x45, 0xc0, 0xbd, 0x7d, 0x5d, 0xc8, 0xbf, 0x32, 0xe4, 0x97, 0xbc, 0x26, 0x1b, 0x5d, 0xbd, 0x72, 0x27, 0x0a, 0x41, 0x36, 0xfe, 0x04, 0x40, 0x75, 0x3c, 0x07, 0xc0, 0x7b, 0xee, 0xcd, 0xbf, 0x62, 0x9f, 0x3e, 0x3e, 0xe5, 0xa7, 0xb0, 0xbe, 0x46, 0x02, 0xa7, 0xbf, 0x2a, 0x9e, 0x99, 0xbf, 0xd7, 0xfb, 0x3a, 0xbe, 0x41, 0x87, 0xe4, 0xc0, 0x28, 0xb5, 0xe7, 0xbe, 0x1a, 0x3c, 0xf1, 0x3f, 0x3f, 0x2b, 0x1c, 0xc1, 0x91, 0x74, 0xdf, 0x40, 0xa9, 0xfd, 0x0c, 0x3f, 0x5e, 0xc0, 0x81, 0x3f, 0xf8, 0x7e, 0x9c, 0xbf, 0x4f, 0xca, 0x83, 0xc0, 0x04, 0x54, 0x80, 0xbf, 0x93, 0xc0, 0xa6, 0x3e, 0xdb, 0xa7, 0x54, 0x3e, 0x33, 0xf2, 0x3e, 0xc0, 0x49, 0xa0, 0x4c, 0xbe, 0xed, 0x08, 0x14, 0x3e, 0x40, 0xb5, 0xd8, 0x40, 0x6e, 0xc8, 0xf9, 0xbf, 0xed, 0x6d, 0xa8, 0x3f, 0x2b, 0xce, 0x97, 0x3f, 0x94, 0xb2, 0xae, 0x3d, 0xf2, 0x8e, 0x8e, 0x3f, 0x67, 0xe1, 0x8b, 0xc0, 0x3e, 0x65, 0x04, 0xbf, 0xef, 0x5d, 0x9b, 0xbf, 0x7c, 0x93, 0x75, 0xbf, 0x13, 0xf9, 0xec, 0xbe, 0x3f, 0x64, 0x45, 0x40, 0x33, 0xaa, 0x7f, 0x3f, 0xbe, 0x05, 0x38, 0x3e, 0x05, 0xb4, 0xef, 0x3e, 0xa6, 0x18, 0xc1, 0xbe, 0x29, 0xed, 0x63, 0x3f, 0x9a, 0xc5, 0xe6, 0xbf, 0x60, 0x7f, 0xdd, 0x3f, 0x2c, 0xea, 0x83, 0xbc, 0xcf, 0xe9, 0x22, 0xc1, 0xfc, 0x80, 0x97, 0xba, 0x75, 0x2a, 0x4d, 0x3f, 0x4a, 0x89, 0x73, 0x3f, 0x8a, 0xca, 0x50, 0x3f, 0x21, 0x53, 0xb7, 0x3d, 0xc2, 0x43, 0x90, 0x3f, 0x8c, 0x70, 0x76, 0x3f, 0x11, 0x96, 0x0c, 0xc0, 0x2f, 0x8a, 0x69, 0xbd, 0xd1, 0xdd, 0x4c, 0xbe, 0xf6, 0x66, 0x97, 0x3f, 0x63, 0x11, 0x40, 0xc0, 0xdc, 0xcd, 0x2a, 0x3d, 0x45, 0x90, 0x42, 0xc0, 0xbd, 0xb5, 0xdf, 0xbe, 0xe1, 0xb6, 0x14, 0xbf, 0x23, 0xfe, 0x4f, 0xbe, 0x7d, 0xac, 0x04, 0xc0, 0xdb, 0xaa, 0x65, 0xbf, 0x4a, 0x6a, 0xc7, 0xbe, 0x38, 0x49, 0xf2, 0x3f, 0x97, 0xf0, 0x9f, 0x3f, 0x5d, 0x07, 0x9d, 0xbe, 0xbd, 0x45, 0xa5, 0xbf, 0x5b, 0xaa, 0xa6, 0xbe, 0xa9, 0x14, 0xa9, 0xbd, 0x7f, 0x59, 0x21, 0x3e, 0x3f, 0x4d, 0x14, 0xbf, 0x4a, 0xa5, 0x80, 0xbf, 0xec, 0x8e, 0x5d, 0x3e, 0x47, 0x31, 0xbf, 0x3d, 0xce, 0x06, 0x0f, 0x3f, 0xa9, 0x4b, 0x0c, 0xc1, 0xa2, 0xc2, 0x17, 0xc0, 0x33, 0x79, 0xc0, 0x3d, 0x49, 0xa6, 0x08, 0x3e, 0xc7, 0x19, 0x06, 0xbf, 0x70, 0xa2, 0x4e, 0xbc, 0x06, 0x54, 0x04, 0xc0, 0xc2, 0x96, 0xdd, 0x3d, 0x47, 0xb6, 0x1d, 0xbf, 0x20, 0x75, 0xa6, 0x3b, 0x4b, 0x04, 0x06, 0x3f, 0x6d, 0xec, 0x63, 0xc0, 0xc7, 0xaa, 0xc2, 0x3e, 0x2f, 0xfb, 0x33, 0x3f, 0x7e, 0x52, 0xad, 0xbe, 0x53, 0x13, 0x99, 0xbd, 0xc7, 0xee, 0x46, 0x3f, 0xcf, 0x78, 0xaa, 0xbf, 0xaa, 0x8b, 0xf9, 0x3f, 0x98, 0xe8, 0xc4, 0xbe, 0xc6, 0x0b, 0xe7, 0xbe, 0x51, 0x59, 0x16, 0xc0, 0x4c, 0x72, 0xf4, 0xbf, 0xe4, 0x65, 0x90, 0x3f, 0x1f, 0xe9, 0xf1, 0x3e, 0x56, 0x0f, 0x40, 0xbf, 0x41, 0xe4, 0x31, 0xbd, 0xe1, 0x48, 0xf9, 0x3e, 0x47, 0xc8, 0x24, 0x40, 0x60, 0x93, 0xe1, 0x3f, 0x1c, 0x60, 0x36, 0xbf, 0xea, 0x07, 0xbe, 0xc0, 0x82, 0x54, 0xc8, 0x3e, 0x11, 0xef, 0x0c, 0xc0, 0xf6, 0x78, 0x81, 0xbe, 0x27, 0xc2, 0x93, 0x3f, 0xec, 0xb0, 0x62, 0xbe, 0xd8, 0xbd, 0x1c, 0x3f, 0xbd, 0x1e, 0x04, 0x3f, 0xe9, 0xb4, 0xd5, 0x3e, 0xb1, 0x60, 0xf9, 0xbe, 0x37, 0x6e, 0x9c, 0x3f, 0x20, 0x92, 0x57, 0xc0, 0xda, 0x22, 0x4e, 0x3c, 0xfa, 0x7d, 0x84, 0xbe, 0x0f, 0x92, 0x6c, 0xc0, 0xc5, 0xc2, 0x5e, 0xbe, 0xae, 0x6d, 0x03, 0x40, 0x29, 0x4d, 0x49, 0x3f, 0xff, 0x9c, 0x86, 0x3f, 0xed, 0xd3, 0x5e, 0x3f, 0xe1, 0xb1, 0xfd, 0x3e, 0xc0, 0xb6, 0x45, 0xbe, 0x57, 0x69, 0xb1, 0x3f, 0x3c, 0x56, 0xa7, 0xbe, 0x7d, 0x67, 0x8e, 0x3e, 0x38, 0x2b, 0x98, 0x3d, 0x46, 0x87, 0x75, 0x3e, 0xff, 0x43, 0x54, 0xbc, 0x2c, 0xf1, 0x43, 0xbf, 0xa4, 0xb2, 0x8d, 0xbe, 0x82, 0xb8, 0x54, 0xbe, 0xc2, 0x05, 0xda, 0xc0, 0x84, 0x99, 0x43, 0xbf, 0x68, 0x45, 0x2d, 0x3e, 0x66, 0xc5, 0x88, 0xbf, 0xfa, 0x0b, 0x28, 0xbf, 0x74, 0x4e, 0xa1, 0xbd, 0xf9, 0x32, 0x90, 0x3e, 0x94, 0x8d, 0x14, 0x3f, 0x99, 0x5a, 0x28, 0x3b, 0xec, 0xe2, 0x17, 0x3f, 0x57, 0x83, 0xd7, 0x3e, 0x6e, 0x3c, 0x2f, 0x3f, 0x15, 0xd2, 0x47, 0xbf, 0x2a, 0x34, 0x05, 0xbf, 0x3d, 0xea, 0x60, 0xbe, 0x8e, 0x8b, 0xfa, 0x3f, 0xf7, 0x09, 0x18, 0x3c, 0x86, 0x5a, 0x8c, 0xbd, 0xdb, 0x93, 0x18, 0xbf, 0x5f, 0xf0, 0xde, 0xc0, 0xb6, 0x3a, 0x4a, 0xc0, 0xcf, 0x0e, 0xaa, 0xbe, 0x02, 0x64, 0x76, 0xc0, 0xd3, 0x42, 0x96, 0x3f, 0xea, 0xcb, 0x60, 0x40, 0x27, 0x58, 0xb7, 0x40, 0x70, 0x06, 0x1a, 0x3f, 0xb0, 0x61, 0x51, 0x3f, 0xfc, 0x7d, 0xae, 0x3e, 0xaf, 0x03, 0x5f, 0x40, 0x41, 0x81, 0x24, 0x40, 0x4d, 0xc2, 0x8a, 0x3e, 0x43, 0xae, 0x92, 0x3f, 0x4d, 0x2f, 0x32, 0xc0, 0x0e, 0xc3, 0xa3, 0xbf, 0xff, 0x23, 0xec, 0xbf, 0x3d, 0x30, 0x00, 0x3f, 0x9a, 0xce, 0x84, 0x3f, 0xb4, 0x9c, 0xd5, 0x3e, 0xb1, 0xc2, 0x90, 0xc0, 0xfd, 0x91, 0xd0, 0x3d, 0x6e, 0xe9, 0xce, 0xbe, 0x16, 0xc7, 0x40, 0x3f, 0xda, 0x92, 0x93, 0x40, 0x62, 0xec, 0x3d, 0xc0, 0xac, 0xd4, 0xcc, 0xc0, 0x42, 0xfe, 0xfc, 0x3f, 0xad, 0xe2, 0xa8, 0xbf, 0x77, 0x6a, 0xb7, 0x3e, 0x4f, 0xbb, 0xe2, 0x3f, 0xcd, 0x63, 0xe4, 0x3e, 0x1e, 0xfb, 0x2d, 0xc0, 0x76, 0x36, 0x6c, 0xc0, 0x49, 0xe3, 0x37, 0x40, 0xb0, 0x2a, 0x51, 0xc0, 0xe7, 0xe9, 0xb7, 0x3f, 0x1e, 0x9f, 0x5c, 0xbf, 0x54, 0x02, 0x03, 0x40, 0x44, 0xff, 0x40, 0xc0, 0x10, 0x9f, 0x7a, 0xbf, 0xe4, 0x17, 0xa8, 0xbf, 0x79, 0x98, 0x2c, 0xbe, 0x81, 0x88, 0xd0, 0xc0, 0x42, 0x48, 0x73, 0xbe, 0x5a, 0x88, 0xe9, 0x3f, 0x94, 0x6c, 0x3a, 0x40, 0x03, 0x98, 0x04, 0xc0, 0x6f, 0x7a, 0x01, 0xc1, 0x96, 0x57, 0x7e, 0xbe, 0x6b, 0xb0, 0x83, 0x3d, 0xed, 0x2a, 0x36, 0x3f, 0xe2, 0x96, 0x7f, 0x3d, 0xe0, 0xc0, 0xb6, 0xc0, 0x08, 0xd9, 0x79, 0xbe, 0x61, 0x23, 0xae, 0xbf, 0x31, 0x5e, 0x98, 0x3e, 0xc9, 0xe7, 0xa1, 0x3e, 0x8e, 0xc2, 0x33, 0x40, 0x17, 0x39, 0xc7, 0x3e, 0x27, 0xf3, 0x0b, 0x3f, 0xa0, 0xaf, 0x9e, 0xbf, 0x24, 0x6c, 0xb9, 0x3d, 0x0c, 0x7f, 0x03, 0xbe, 0xed, 0x92, 0x02, 0x3e, 0x91, 0x59, 0x0c, 0xbe, 0x32, 0xfe, 0x72, 0xbe, 0xbf, 0xbf, 0x15, 0xbe, 0x47, 0x39, 0x39, 0xbe, 0xe3, 0xad, 0x64, 0xbe, 0xb7, 0xe8, 0x1d, 0x3e, 0x6f, 0xa1, 0x42, 0xbe, 0xfd, 0x8d, 0x6c, 0xbe, 0xdc, 0x28, 0x46, 0xbc, 0x91, 0xa3, 0x15, 0xbe, 0x4e, 0x2f, 0x24, 0xbe, 0x79, 0x14, 0x8c, 0xbd, 0xf8, 0x2b, 0x84, 0xbd, 0x6b, 0xd7, 0x87, 0x3d, 0xf0, 0x26, 0x53, 0x3e, 0xa4, 0x5a, 0xaa, 0xbe, 0x6f, 0x6a, 0x89, 0xbe, 0x57, 0xb9, 0x53, 0xbe, 0x46, 0x35, 0x8a, 0xbe, 0x87, 0x2c, 0xaf, 0xbc, 0xdc, 0x6d, 0x32, 0xbe, 0x3f, 0x02, 0x4b, 0xbe, 0x85, 0x5c, 0x48, 0xbe, 0x88, 0xeb, 0x9e, 0xbe, 0xd7, 0x51, 0x7f, 0xbe, 0x16, 0x2c, 0x84, 0xbe, 0xa9, 0xd4, 0x2d, 0xbe, 0x8f, 0xf3, 0x05, 0xbe, 0x25, 0x32, 0xf6, 0xbd, 0x6a, 0x69, 0x87, 0xbe, 0x80, 0xea, 0x66, 0xbe, 0x8a, 0x45, 0x6f, 0xbe, 0xaa, 0x36, 0x87, 0x3d, 0x63, 0x43, 0xdb, 0x3b, 0xf8, 0x48, 0x5d, 0xbe, 0xdd, 0xb2, 0xc6, 0x3d, 0x3f, 0x52, 0xac, 0xbd, 0xf6, 0x72, 0xb7, 0xbe, 0x14, 0xf8, 0x40, 0xbe, 0x37, 0x5b, 0x3c, 0xbd, 0x1e, 0x60, 0x58, 0xbe, 0x6b, 0xb3, 0x41, 0xbe, 0x22, 0x89, 0xd5, 0xbd, 0x2b, 0x6f, 0x00, 0xbe, 0x62, 0x71, 0x0c, 0xbc, 0x2d, 0xef, 0x87, 0xbd, 0xae, 0x0d, 0xf4, 0x3d, 0x37, 0x1b, 0xfd, 0x3d, 0x4a, 0x93, 0xf4, 0xbd, 0x10, 0x22, 0xb9, 0xbc, 0xfe, 0x10, 0x8d, 0xbd, 0x75, 0x97, 0x63, 0xbe, 0x61, 0x3a, 0xa6, 0xbe, 0x73, 0xc6, 0x0a, 0x3e, 0x4f, 0xe4, 0x00, 0xbe, 0x91, 0x40, 0x00, 0xbd, 0xc7, 0x23, 0xa0, 0xbe, 0x23, 0x24, 0x89, 0x3d, 0x11, 0x11, 0xca, 0x3d, 0xe0, 0xf5, 0x86, 0xbe, 0x8c, 0x31, 0x84, 0x3e, 0xfa, 0xf9, 0x54, 0x3e, 0xdf, 0x0c, 0xf8, 0xbc, 0xbd, 0xac, 0x81, 0x3d, 0xa7, 0xf4, 0x2e, 0x3f, 0xf3, 0x47, 0xdf, 0xbd, 0xed, 0x18, 0xcf, 0x3f, 0x83, 0x9a, 0x34, 0xc0, 0x9e, 0x18, 0xa1, 0x3e, 0x31, 0xd6, 0x43, 0xbf, 0x66, 0x6f, 0xb9, 0xbd, 0xd0, 0x9b, 0x91, 0xbd, 0xab, 0x74, 0x88, 0xbe, 0x33, 0x3d, 0x7b, 0xbf, 0xee, 0x72, 0x6c, 0xc0, 0xe9, 0x1d, 0x90, 0x3e, 0x96, 0xcb, 0x0e, 0x3f, 0x80, 0xb0, 0xd0, 0xc0, 0xd8, 0x19, 0xd1, 0x3e, 0xfc, 0xdb, 0xa8, 0xbf, 0x14, 0x16, 0xc8, 0xbd, 0xd5, 0x3d, 0x15, 0x40, 0x63, 0xea, 0x05, 0xbf, 0xdd, 0x13, 0x79, 0xbf, 0x2a, 0x7c, 0xac, 0xbd, 0x95, 0x48, 0x79, 0xbf, 0xbb, 0x42, 0x97, 0x3d, 0x5e, 0x7c, 0x9f, 0xc0, 0x0e, 0x14, 0x30, 0x3f, 0xf2, 0xca, 0xfa, 0x3c, 0xa4, 0xa2, 0x64, 0x3f, 0xb6, 0x47, 0xb7, 0xbf, 0x8d, 0x61, 0x31, 0xc0, 0x21, 0x60, 0x26, 0xc0, 0xb7, 0x99, 0x90, 0xbe, 0x89, 0x30, 0x76, 0xc0, 0x69, 0xac, 0x0f, 0x3f, 0xc4, 0xe9, 0xab, 0x3e, 0xf1, 0xa7, 0x8a, 0x3d, 0x0d, 0x56, 0xbd, 0xbf, 0x2e, 0xf8, 0xda, 0x3d, 0x7f, 0xa3, 0x35, 0xc0, 0xe8, 0xd6, 0x6a, 0xbc, 0x3a, 0xaa, 0xb5, 0xbe, 0x39, 0xb4, 0x91, 0xbd, 0x4b, 0x7e, 0xa4, 0x3e, 0x4e, 0x00, 0x77, 0xbf, 0x6f, 0x2c, 0xe6, 0xbc, 0x27, 0x9b, 0x1b, 0x40, 0x17, 0xf9, 0x2f, 0xbf, 0xed, 0x47, 0xbd, 0xbe, 0xc5, 0x08, 0x87, 0xbc, 0xad, 0xc9, 0xaf, 0x3e, 0x69, 0x8c, 0x37, 0x3c, 0x90, 0x7d, 0x89, 0x3e, 0xa2, 0x90, 0x42, 0x3f, 0x01, 0x41, 0x46, 0xbd, 0x52, 0xce, 0x8e, 0xbc, 0x13, 0xf8, 0x67, 0xbf, 0x27, 0x78, 0x06, 0x3d, 0x66, 0xf5, 0xa9, 0xbf, 0x87, 0x44, 0x0b, 0xbe, 0x9a, 0x64, 0x2f, 0x3f, 0xd5, 0x44, 0x15, 0xc0, 0xfd, 0xf0, 0x2d, 0xc0, 0x22, 0x8a, 0x06, 0xbf, 0x6a, 0x4d, 0x8b, 0xc0, 0x87, 0x95, 0xcd, 0xbf, 0x33, 0x7f, 0xba, 0x3f, 0x52, 0x27, 0x3d, 0x3f, 0x5a, 0x01, 0x1d, 0xc0, 0xc1, 0x2c, 0x97, 0x3c, 0x20, 0xdb, 0x63, 0xc0, 0x4c, 0x74, 0x95, 0xbe, 0x0c, 0x8b, 0x8d, 0xbd, 0xe2, 0x04, 0xc0, 0xbf, 0xe9, 0x52, 0x84, 0x3e, 0xd8, 0x49, 0x9d, 0x3f, 0xf2, 0x3f, 0x22, 0xc0, 0x6c, 0xbb, 0x48, 0xc0, 0x49, 0xbf, 0xeb, 0xbe, 0x43, 0xd2, 0x1b, 0x40, 0xb0, 0x49, 0x94, 0xbc, 0xdb, 0x01, 0x20, 0xbd, 0xd5, 0xf6, 0x67, 0x3e, 0xd3, 0x6e, 0x6d, 0xbe, 0x9e, 0xba, 0xc9, 0xbd, 0x9f, 0xd1, 0xd2, 0x3e, 0x2f, 0xe3, 0x09, 0x3f, 0xef, 0x3f, 0x51, 0x3f, 0x41, 0x99, 0x4e, 0x3f, 0xec, 0x4f, 0x7e, 0x3f, 0x5d, 0x13, 0x32, 0x3e, 0xb6, 0xfe, 0x9e, 0x3f, 0x0f, 0xd1, 0x62, 0xbe, 0x21, 0x63, 0x84, 0xbe, 0x4a, 0xca, 0xbc, 0x3f, 0x43, 0xb2, 0x29, 0xbe, 0x05, 0xb0, 0x37, 0x3f, 0x04, 0xa8, 0x12, 0xc0, 0x2b, 0xa3, 0x65, 0x3f, 0x54, 0xbd, 0xfe, 0xbd, 0x88, 0x64, 0x70, 0xbf, 0xae, 0x94, 0x94, 0x3f, 0xb3, 0xf6, 0xb3, 0xbc, 0x3e, 0xea, 0xd4, 0xbf, 0x80, 0x06, 0x3c, 0xbf, 0x86, 0xd0, 0xde, 0xbd, 0xf5, 0xd5, 0x5d, 0xbe, 0x8b, 0xbb, 0x1e, 0x3e, 0x32, 0x0c, 0x37, 0xc0, 0xc7, 0x8c, 0xce, 0x3e, 0x92, 0x7f, 0x38, 0xbf, 0x1c, 0xe6, 0x08, 0x3f, 0x00, 0x56, 0x0d, 0x40, 0x5f, 0x03, 0x5b, 0xbf, 0x1c, 0xb4, 0x79, 0xbe, 0x5a, 0xbb, 0x82, 0xbc, 0x56, 0xef, 0x13, 0xbe, 0xe6, 0xc3, 0x83, 0x3e, 0xcb, 0x8a, 0xd9, 0xbf, 0xf5, 0x68, 0xce, 0xbf, 0xcf, 0x69, 0x85, 0xbf, 0x36, 0xd9, 0x01, 0x3f, 0x67, 0x7c, 0x83, 0x3f, 0xcc, 0x4c, 0x79, 0xbf, 0xe8, 0xdf, 0x24, 0x3b, 0xad, 0x9f, 0xa3, 0x3f, 0xa9, 0x09, 0xe3, 0xba, 0x5e, 0x3d, 0xd1, 0xbe, 0xc8, 0x32, 0x02, 0x3e, 0x1c, 0x6f, 0xb7, 0xbe, 0x1a, 0x8f, 0xbe, 0xbe, 0xc7, 0x8d, 0x3e, 0xbe, 0x7a, 0xb5, 0xae, 0xbe, 0x5a, 0xee, 0x77, 0xbe, 0x7d, 0x0c, 0xe9, 0xbe, 0x19, 0x67, 0x81, 0xbe, 0xc5, 0xd9, 0xf7, 0xbe, 0xb3, 0x8f, 0xb6, 0xbe, 0xea, 0xb4, 0x47, 0xbe, 0x1e, 0x39, 0x3b, 0xbe, 0x0c, 0x97, 0x21, 0xbc, 0xf2, 0x56, 0x07, 0x3d, 0xcf, 0x93, 0x6c, 0x3d, 0x50, 0x1f, 0xa9, 0xbd, 0x77, 0xa7, 0x4e, 0x3e, 0x05, 0x5a, 0x27, 0x3e, 0x47, 0xcb, 0x2f, 0xbf, 0x48, 0xdc, 0x60, 0x3d, 0xc8, 0x04, 0x8e, 0x3d, 0x73, 0x7e, 0x23, 0xbe, 0x2a, 0xb2, 0x5d, 0xbe, 0xfb, 0x83, 0xeb, 0xbe, 0x7c, 0x16, 0x23, 0xbd, 0x69, 0x5a, 0xa6, 0xbe, 0xeb, 0x87, 0xa5, 0x3d, 0x8d, 0xf8, 0x88, 0x3d, 0x3a, 0x44, 0x12, 0xbb, 0xf6, 0xe1, 0x20, 0xbe, 0x7f, 0x32, 0x0b, 0x3d, 0x8c, 0xdd, 0xaf, 0x3d, 0x65, 0xc4, 0x6a, 0xbd, 0x96, 0x7a, 0xfc, 0xba, 0x39, 0xc5, 0xfc, 0x3d, 0xf5, 0xb0, 0xb2, 0xbe, 0xf7, 0x44, 0x4d, 0xbe, 0x35, 0x9a, 0xe6, 0xbe, 0x28, 0x6f, 0xd0, 0xbd, 0x02, 0x27, 0x27, 0xbe, 0x56, 0xe8, 0x04, 0xbe, 0x0e, 0x75, 0x19, 0xbc, 0x1a, 0x22, 0x6a, 0xbe, 0x65, 0x73, 0x88, 0xbe, 0x5c, 0x5b, 0x3c, 0xbe, 0xc2, 0x94, 0xd6, 0xbd, 0x16, 0x52, 0x8f, 0x3e, 0x84, 0x46, 0xb4, 0xbd, 0xf9, 0xcc, 0xfa, 0xbd, 0x7c, 0xe5, 0x42, 0x3e, 0xe5, 0x2a, 0xdd, 0xbd, 0x21, 0xea, 0xb2, 0xbe, 0x92, 0x8c, 0x95, 0x3d, 0xd1, 0xa9, 0x8f, 0xbe, 0x7f, 0x53, 0x2c, 0xbe, 0x39, 0x4a, 0xfa, 0x3d, 0x1a, 0x0f, 0xd2, 0xbc, 0xc8, 0xa0, 0x02, 0xbe, 0xe6, 0xeb, 0x21, 0xbf, 0xb9, 0x00, 0xcd, 0x3c, 0xd3, 0x13, 0x92, 0xbc, 0xab, 0x63, 0xb9, 0xbe, 0xb1, 0xb1, 0x96, 0xbe, 0xe5, 0x1b, 0x7e, 0xbe, 0x21, 0xcb, 0x48, 0xbf, 0xa0, 0xc2, 0x8b, 0xbf, 0x85, 0x05, 0xcb, 0xbd, 0xf6, 0xc6, 0xd7, 0xbe, 0x97, 0xee, 0x80, 0x3d, 0x14, 0xac, 0x5e, 0xbf, 0xc2, 0x83, 0x69, 0x3d, 0x19, 0x11, 0x39, 0xc0, 0x32, 0x02, 0x86, 0xbe, 0xb4, 0x29, 0x62, 0xbe, 0x7a, 0x8c, 0x60, 0x3f, 0xb3, 0x81, 0x83, 0x3e, 0x14, 0xf1, 0xb1, 0xbe, 0xfc, 0x3d, 0x22, 0xc0, 0x8c, 0xd1, 0x83, 0x3f, 0x03, 0xe0, 0xe1, 0x3f, 0x48, 0x6a, 0x81, 0x3e, 0x02, 0x0a, 0x05, 0x3f, 0x81, 0x4e, 0x81, 0xbe, 0xef, 0xd4, 0x86, 0xbf, 0x35, 0x0c, 0x61, 0x3f, 0xce, 0x28, 0x22, 0x3e, 0x39, 0x8c, 0x9a, 0xbf, 0xbd, 0x4e, 0x99, 0x3f, 0x37, 0xf8, 0x3a, 0xbf, 0xaf, 0x0b, 0x28, 0xc0, 0x64, 0x96, 0x88, 0x3f, 0xdc, 0x51, 0x29, 0x3e, 0x98, 0x71, 0xaa, 0xbf, 0xa4, 0xe1, 0x3a, 0x40, 0xb7, 0x94, 0xcb, 0x3f, 0x8c, 0x76, 0x89, 0x3f, 0xb5, 0x28, 0x95, 0xbf, 0xff, 0x57, 0x1d, 0xc0, 0x0e, 0x6a, 0x34, 0x3e, 0xbd, 0xe6, 0x94, 0xbe, 0xe8, 0x30, 0x92, 0xbf, 0xc5, 0x66, 0x5a, 0xbd, 0x1e, 0x9e, 0x7c, 0xbd, 0xf8, 0xe0, 0x82, 0xbe, 0xba, 0xaa, 0x21, 0x3f, 0xd8, 0x79, 0x2c, 0x3e, 0xc3, 0xb4, 0x29, 0x3e, 0x89, 0xce, 0x37, 0x3e, 0xd7, 0xcb, 0xab, 0xbf, 0x71, 0xaf, 0x81, 0xbe, 0x2b, 0x59, 0x90, 0xbd, 0x15, 0x49, 0x15, 0xc0, 0x64, 0x55, 0xf6, 0xbd, 0xdd, 0xf3, 0xb4, 0xbf, 0x2f, 0x30, 0x1e, 0xbf, 0x52, 0x02, 0xa8, 0x3e, 0x90, 0x87, 0x38, 0x3f, 0x6c, 0x77, 0x18, 0x3e, 0xf3, 0x39, 0xf9, 0xbf, 0x0c, 0x16, 0xad, 0x3f, 0xb7, 0x9d, 0xce, 0xbd, 0xd2, 0x98, 0xcb, 0x3d, 0x29, 0x55, 0x03, 0xbf, 0x17, 0x28, 0x99, 0x3e, 0x10, 0x9c, 0x10, 0x3f, 0xc7, 0xe2, 0x88, 0xc0, 0x23, 0xd2, 0xdb, 0xbf, 0xb8, 0x3f, 0x8b, 0x3f, 0x5b, 0xea, 0x8a, 0x40, 0x7d, 0x53, 0x92, 0x3f, 0x68, 0x9a, 0xc5, 0xbe, 0xe0, 0x46, 0x0e, 0x3e, 0xe2, 0x43, 0x58, 0xbe, 0x37, 0xd9, 0x96, 0x3d, 0xcb, 0xf6, 0xa7, 0x3e, 0x17, 0x8b, 0x71, 0xc0, 0x45, 0x8e, 0xb5, 0x3f, 0xaa, 0xbf, 0x51, 0xbf, 0x00, 0x46, 0x45, 0x3f, 0x1c, 0x39, 0xb5, 0xbf, 0xe1, 0xd8, 0x3b, 0xc0, 0xd0, 0x41, 0x8d, 0xc0, 0xf8, 0x8f, 0xdb, 0xbf, 0x70, 0xfa, 0x47, 0xbf, 0x19, 0x53, 0x15, 0xbe, 0xdf, 0x96, 0xb5, 0xbf, 0x6c, 0xbf, 0xa2, 0x3e, 0x0e, 0x07, 0xea, 0x3f, 0x34, 0x6c, 0xbc, 0xbf, 0x0d, 0x15, 0xbd, 0xbf, 0x9b, 0xff, 0x6c, 0x3e, 0xd4, 0x63, 0x44, 0x3f, 0x6f, 0xd6, 0xcf, 0xbe, 0xb9, 0x6d, 0x52, 0xc0, 0x06, 0xc1, 0xa2, 0xbd, 0x5f, 0x38, 0x54, 0xc0, 0xa2, 0x59, 0xac, 0x3f, 0x09, 0xb4, 0x8a, 0xbf, 0x8c, 0x55, 0x6e, 0xc0, 0xa1, 0x89, 0xad, 0xbf, 0xbc, 0x57, 0x21, 0xbf, 0x01, 0x80, 0xac, 0xc0, 0xd8, 0x2b, 0x2f, 0x40, 0x77, 0x2e, 0x49, 0xbe, 0x4f, 0x9f, 0x4f, 0x40, 0x99, 0xaa, 0x01, 0x40, 0x37, 0x4d, 0x55, 0x3e, 0x8e, 0xa3, 0x8c, 0x3f, 0xc3, 0xde, 0x77, 0xbe, 0x3e, 0x54, 0x39, 0xbf, 0x2b, 0x92, 0x7c, 0x3b, 0x80, 0xba, 0x8d, 0xbf, 0x29, 0x8c, 0x16, 0xc0, 0xb4, 0xee, 0x2b, 0xbf, 0xa6, 0xb8, 0xa9, 0xbc, 0xc7, 0xb9, 0xb7, 0x3f, 0x6e, 0x17, 0xea, 0x3f, 0x97, 0xfe, 0xb5, 0x3e, 0xc7, 0xac, 0x81, 0x3f, 0xba, 0x08, 0x34, 0x3f, 0x91, 0x93, 0x28, 0xbe, 0xc7, 0x64, 0xa3, 0x3e, 0xcb, 0x6c, 0xe1, 0xbf, 0x9c, 0xea, 0x98, 0x3f, 0x93, 0x82, 0x8c, 0xbe, 0x76, 0xe3, 0xbb, 0x3e, 0x26, 0x39, 0xc5, 0xc0, 0x1f, 0x36, 0x92, 0xbf, 0x6f, 0xc3, 0x93, 0x3f, 0xb6, 0x4e, 0x3c, 0x3e, 0x40, 0xda, 0x2e, 0xbe, 0x02, 0xaa, 0xe4, 0xc0, 0x45, 0xa5, 0x52, 0x3f, 0x7e, 0x30, 0x87, 0x3f, 0xd1, 0x09, 0x82, 0x3e, 0xc7, 0x7e, 0x56, 0xbe, 0x66, 0xa9, 0xaa, 0xc0, 0xb5, 0xa1, 0x0c, 0x3e, 0x94, 0x80, 0xbd, 0x3f, 0x41, 0xbe, 0xfc, 0x3f, 0x0c, 0x37, 0xd5, 0xbf, 0x27, 0xa8, 0x53, 0x3f, 0x21, 0x60, 0xe8, 0x3e, 0xb2, 0xff, 0xff, 0x3e, 0xaf, 0xf6, 0x9d, 0xbf, 0xd4, 0xa0, 0x49, 0xc1, 0x91, 0x9a, 0xbf, 0xbe, 0xa7, 0x27, 0xd6, 0xbf, 0x23, 0xb9, 0x36, 0xbf, 0xb2, 0xa3, 0xdb, 0xbd, 0x2a, 0x2f, 0x04, 0x3f, 0xc2, 0x55, 0x6d, 0x3f, 0x54, 0x8f, 0xae, 0x3e, 0x24, 0xc6, 0x15, 0xbf, 0x14, 0xa2, 0xae, 0xbd, 0xb8, 0xcd, 0x79, 0x3f, 0xbe, 0xb9, 0x43, 0xbf, 0x22, 0xda, 0xd0, 0xbe, 0x55, 0x73, 0xa7, 0xc0, 0x69, 0xea, 0xe7, 0x3e, 0xbb, 0x59, 0xc0, 0xbf, 0x1b, 0x98, 0x82, 0x3f, 0xd9, 0x93, 0x41, 0xbf, 0xae, 0xfb, 0x35, 0xbf, 0xad, 0xd5, 0xda, 0xbf, 0xa2, 0xc3, 0xa2, 0xbe, 0x07, 0xcd, 0x2f, 0x3e, 0xcb, 0xf1, 0x54, 0x3d, 0x7c, 0x05, 0xae, 0xbf, 0x78, 0x89, 0x1d, 0x3f, 0xe5, 0x52, 0xce, 0xbd, 0xda, 0x06, 0xd5, 0x3f, 0x47, 0x51, 0x6c, 0x3f, 0x25, 0xba, 0x65, 0xbe, 0x52, 0x09, 0x8d, 0xbe, 0xe6, 0xaa, 0x25, 0x3f, 0x2b, 0x75, 0xa8, 0x3e, 0x31, 0x97, 0x96, 0xbf, 0xd6, 0x37, 0x14, 0x40, 0x47, 0x5e, 0x84, 0xbe, 0x27, 0xbc, 0x1f, 0xbf, 0xef, 0x03, 0x68, 0x3e, 0x23, 0x6d, 0x22, 0x40, 0xe0, 0x80, 0x49, 0xbf, 0x0a, 0x6f, 0xa0, 0xbd, 0x66, 0x8e, 0x8f, 0xbe, 0x0e, 0x06, 0x93, 0xbf, 0xf5, 0x6b, 0x94, 0x3f, 0x79, 0xbf, 0x80, 0x3e, 0x22, 0xf0, 0xa5, 0x3e, 0x07, 0x81, 0x29, 0xbf, 0xd0, 0x89, 0x70, 0x3f, 0x0c, 0xb7, 0x70, 0x3e, 0x2d, 0xd7, 0xad, 0x3c, 0x1c, 0xaf, 0xc1, 0xbd, 0x62, 0xc5, 0x48, 0xbe, 0x23, 0xeb, 0x9d, 0x3f, 0x5a, 0x9b, 0xc7, 0xbd, 0xaa, 0x50, 0x8c, 0x3f, 0xab, 0x2a, 0xfb, 0xbe, 0xe8, 0xb6, 0xe8, 0xbc, 0xc3, 0xb0, 0x6e, 0x3f, 0xca, 0x88, 0xb5, 0x3f, 0x7d, 0xdc, 0x0c, 0x40, 0xa8, 0xf1, 0xdb, 0x3f, 0x26, 0x38, 0xd5, 0x3d, 0x86, 0x6f, 0x23, 0x3d, 0x9f, 0xc1, 0x6d, 0x3e, 0x44, 0xf2, 0xbf, 0x3f, 0xa5, 0xae, 0x89, 0x3f, 0x55, 0x45, 0xb8, 0xbe, 0x41, 0x7a, 0x53, 0x3f, 0x44, 0xc5, 0x79, 0xbc, 0x1f, 0xb2, 0x6a, 0xbf, 0xff, 0x77, 0x90, 0x3e, 0xe2, 0xed, 0xf6, 0x3e, 0x4c, 0x7b, 0x13, 0x3f, 0x19, 0xee, 0xd7, 0x3f, 0x49, 0x94, 0x26, 0xbf, 0x66, 0x96, 0x66, 0xbe, 0x9a, 0x1e, 0x06, 0x3f, 0x7a, 0xbb, 0x92, 0xbe, 0x89, 0xa4, 0x62, 0xbf, 0x86, 0x56, 0x08, 0x3f, 0x48, 0xd7, 0x00, 0xbf, 0xe6, 0xe1, 0x15, 0x3f, 0x80, 0x06, 0x42, 0xbf, 0xfb, 0x12, 0x12, 0xbe, 0xe9, 0xaf, 0x3e, 0x3f, 0x67, 0x42, 0x4a, 0x3f, 0xba, 0x78, 0xab, 0x3e, 0x21, 0xab, 0x74, 0x3e, 0x23, 0xb6, 0x31, 0x3f, 0xfb, 0x73, 0xf9, 0x3e, 0xe7, 0xc7, 0x95, 0xbe, 0xef, 0x84, 0x33, 0x3f, 0x18, 0xb8, 0xef, 0xbe, 0xdb, 0x20, 0x0e, 0xbe, 0xd0, 0xa4, 0x03, 0x3e, 0xaf, 0x1d, 0xb3, 0xbe, 0x2b, 0x5c, 0x61, 0x3f, 0x07, 0x1e, 0xb5, 0xbd, 0xc3, 0x4e, 0x06, 0xc0, 0xc6, 0xb6, 0x8a, 0xbe, 0xbe, 0x8f, 0x17, 0x3f, 0x24, 0xb1, 0x45, 0xbf, 0x76, 0xf4, 0x80, 0xbe, 0x83, 0xda, 0x85, 0x3e, 0x72, 0x56, 0x0d, 0xbe, 0x56, 0x2c, 0x94, 0x3d, 0x24, 0x53, 0x68, 0xbe, 0x14, 0x4e, 0x7e, 0xbe, 0xbf, 0x44, 0x42, 0x3f, 0x71, 0x68, 0x1d, 0xbf, 0xe6, 0x3b, 0xe0, 0xbf, 0xe8, 0x1a, 0x60, 0x3e, 0x89, 0xf7, 0xe9, 0x3d, 0xbd, 0x49, 0xd4, 0x3f, 0x27, 0x37, 0x9e, 0x3f, 0x0a, 0xd1, 0x83, 0x3f, 0x06, 0xc2, 0x6a, 0x3f, 0xbb, 0xc5, 0x59, 0xc0, 0x27, 0x8b, 0xfd, 0xbd, 0xda, 0x95, 0xfb, 0xbe, 0x9b, 0x57, 0x49, 0xbf, 0x3f, 0xca, 0x28, 0xbf, 0x58, 0xa1, 0xd2, 0xbe, 0xad, 0x2c, 0x48, 0xc0, 0x8f, 0x8a, 0x26, 0xc0, 0x99, 0xba, 0x63, 0x3d, 0xe9, 0x15, 0x1d, 0x3f, 0xdc, 0xb0, 0xa4, 0xbf, 0x5a, 0xbc, 0xca, 0xc0, 0x5a, 0x3c, 0x64, 0xbd, 0x32, 0x78, 0x36, 0x3f, 0x0e, 0x60, 0x52, 0x3f, 0xac, 0x8b, 0x38, 0x3e, 0x1a, 0x22, 0x46, 0x3e, 0x14, 0x5d, 0x3f, 0x3e, 0x4c, 0x9c, 0x48, 0xbe, 0x6b, 0x77, 0x25, 0x3e, 0x86, 0x28, 0x15, 0xc1, 0x6a, 0x3d, 0xc9, 0xbe, 0xb3, 0x45, 0xd5, 0x3e, 0x79, 0x17, 0x94, 0x3e, 0x73, 0xc9, 0xe8, 0xc0, 0x27, 0xf0, 0x0e, 0xc0, 0x3a, 0x1a, 0x80, 0xbe, 0x57, 0x59, 0xb8, 0x3d, 0xa9, 0x6a, 0xef, 0xbf, 0x67, 0xc9, 0x8c, 0xc0, 0xa0, 0xf8, 0xd4, 0xbc, 0xfb, 0x9d, 0x9a, 0x3e, 0x39, 0x1b, 0x6b, 0xc1, 0x9a, 0xe8, 0x6e, 0xc0, 0xfa, 0x54, 0x84, 0xbb, 0xf3, 0x6a, 0x62, 0x40, 0x89, 0x90, 0x08, 0xc0, 0x2e, 0x06, 0x18, 0x3e, 0x28, 0x74, 0x70, 0x40, 0xb6, 0xe8, 0xd7, 0x3b, 0x15, 0x27, 0x49, 0x3e, 0xa1, 0xb1, 0xf6, 0x3d, 0x90, 0xb9, 0xb1, 0xbf, 0x9d, 0xf6, 0x5f, 0xbf, 0xfc, 0xd1, 0xaa, 0xbe, 0xdc, 0x31, 0xd7, 0x3f, 0x66, 0xce, 0xc1, 0x3e, 0x1f, 0xa3, 0x86, 0xc0, 0xfa, 0xc5, 0xed, 0xbe, 0x40, 0xfa, 0xb1, 0x3f, 0x52, 0x11, 0x63, 0xbf, 0xc3, 0xac, 0x56, 0xbd, 0x66, 0x55, 0x05, 0xbf, 0xcc, 0x0e, 0xf3, 0xbd, 0xee, 0xfc, 0x15, 0xc0, 0x23, 0x75, 0xaa, 0xbf, 0x24, 0xe2, 0x3f, 0xbf, 0x1d, 0x55, 0x88, 0xc0, 0x67, 0xe4, 0x97, 0xbf, 0xa4, 0x6f, 0x86, 0x3e, 0xfb, 0xef, 0x33, 0x3f, 0x88, 0x39, 0x0b, 0x3f, 0xd6, 0xf8, 0xff, 0xff, 0x04, 0x00, 0x00, 0x00, 0x00, 0x06, 0x00, 0x00, 0xcf, 0x3e, 0xd6, 0xc0, 0xc9, 0xe3, 0x56, 0xc0, 0xda, 0x6d, 0x4a, 0xbe, 0xa8, 0xd6, 0x85, 0x3c, 0xfc, 0xd5, 0x14, 0xbc, 0xd0, 0x3e, 0x56, 0x3d, 0x11, 0x83, 0x2d, 0xbf, 0x25, 0x19, 0x0c, 0x41, 0x7c, 0x98, 0x32, 0xc1, 0x26, 0x0e, 0xc7, 0xbd, 0xab, 0x06, 0x41, 0xbd, 0x22, 0xed, 0xcf, 0xbc, 0x07, 0xbf, 0xfb, 0x40, 0xc4, 0x10, 0x84, 0x40, 0xb9, 0xd4, 0x9e, 0xbf, 0x9b, 0x3a, 0x14, 0x3e, 0xa0, 0xff, 0x39, 0x3d, 0xe8, 0xda, 0x03, 0xbe, 0xe8, 0x57, 0x53, 0xc0, 0xd5, 0x46, 0xd6, 0x40, 0x05, 0x08, 0x27, 0xbf, 0xf1, 0xfb, 0x03, 0xbe, 0xdb, 0x0e, 0x2f, 0x3d, 0x0f, 0xa9, 0x07, 0xbe, 0x3d, 0x09, 0x0d, 0x40, 0x76, 0x61, 0xc8, 0x3c, 0x39, 0xf3, 0xe9, 0xbe, 0xe5, 0x25, 0xfd, 0xbe, 0x34, 0xe5, 0x25, 0x3e, 0xdc, 0x23, 0x15, 0xbe, 0x1a, 0xab, 0x65, 0xc1, 0x9e, 0xde, 0xe2, 0x3e, 0x2b, 0x7c, 0x63, 0xbf, 0x00, 0x1f, 0x4b, 0xbd, 0xcf, 0x86, 0x5a, 0xbd, 0xe3, 0xf9, 0x88, 0xbd, 0x34, 0x9e, 0xf0, 0x3e, 0xcf, 0x9f, 0x2f, 0x41, 0x95, 0x2a, 0x79, 0xc0, 0xbd, 0x63, 0xbc, 0x3d, 0x42, 0xfb, 0x62, 0xbc, 0xd8, 0xf4, 0x5b, 0xbb, 0x60, 0xde, 0xb2, 0x3f, 0x6c, 0xbd, 0xf7, 0x3f, 0x63, 0x54, 0xb6, 0x40, 0x1b, 0xb8, 0x18, 0xbd, 0x23, 0xb0, 0xb8, 0xbb, 0xbb, 0x39, 0x45, 0x3d, 0x5a, 0x88, 0x35, 0x3e, 0x2c, 0x64, 0xe5, 0xc0, 0x31, 0x38, 0xd9, 0x40, 0x71, 0x1d, 0xc6, 0x3c, 0xf4, 0x2e, 0x0a, 0x3d, 0x26, 0x78, 0xc8, 0xbd, 0x30, 0xa9, 0x57, 0xc1, 0xd9, 0xd1, 0x52, 0x3e, 0x0f, 0x1e, 0x05, 0xbf, 0x7a, 0xbe, 0x18, 0xbc, 0xf3, 0xe6, 0xa4, 0x3d, 0x23, 0x1b, 0x08, 0x3e, 0x25, 0x68, 0x49, 0x41, 0xfe, 0x30, 0x71, 0xbf, 0xbe, 0x89, 0x19, 0x3f, 0xf1, 0x04, 0x1e, 0x3e, 0xd9, 0x28, 0xcc, 0x3d, 0x90, 0x4f, 0x54, 0xbb, 0x09, 0x19, 0xa1, 0xbc, 0x64, 0x23, 0x3e, 0x3e, 0xa9, 0xd2, 0x49, 0xbc, 0x26, 0x97, 0xea, 0xbb, 0x54, 0xb5, 0x3b, 0xbd, 0xac, 0x47, 0x11, 0xbf, 0x76, 0x12, 0xd7, 0xbf, 0x61, 0x9b, 0x49, 0xbe, 0xae, 0x1e, 0xb7, 0xc0, 0x8d, 0x2c, 0x34, 0x3e, 0xb4, 0x48, 0x3c, 0xbe, 0x17, 0xdd, 0x9e, 0x3d, 0x10, 0x8d, 0xf9, 0xbf, 0x71, 0x43, 0x91, 0xc0, 0x61, 0x4f, 0xf7, 0xc0, 0x6c, 0x46, 0x18, 0xbd, 0x48, 0xa9, 0x44, 0xb9, 0x68, 0x0d, 0x12, 0xb9, 0x12, 0x53, 0x14, 0xc1, 0x46, 0xe6, 0x77, 0xc0, 0x54, 0x76, 0x4d, 0xc0, 0xd2, 0x22, 0xaa, 0x3a, 0xdd, 0x23, 0xa1, 0xbc, 0x32, 0x57, 0x9a, 0x3c, 0x47, 0xd4, 0x54, 0xc0, 0x51, 0x14, 0x86, 0x41, 0xec, 0x23, 0xca, 0xbf, 0x0e, 0x41, 0x7e, 0xbe, 0x69, 0x75, 0xfa, 0x3d, 0xc7, 0x90, 0x45, 0xbe, 0x68, 0xf4, 0x37, 0x40, 0x74, 0xbf, 0x96, 0x41, 0xc9, 0xb7, 0x1f, 0xc0, 0xdc, 0xb8, 0xdf, 0xbd, 0x01, 0xe8, 0x64, 0xbd, 0xd4, 0x03, 0x91, 0xbd, 0x6d, 0x11, 0xa3, 0x3c, 0x54, 0x51, 0xe2, 0xbe, 0x4c, 0x60, 0x15, 0x3e, 0x85, 0xaf, 0x75, 0xbe, 0x0a, 0xfa, 0x02, 0xbe, 0x49, 0x4a, 0xb6, 0x3f, 0x8c, 0x7d, 0xc4, 0x3f, 0x1d, 0x8c, 0x2e, 0x41, 0x13, 0xd7, 0xcd, 0x40, 0x82, 0xa2, 0x3f, 0xbe, 0xa9, 0x87, 0x15, 0x3d, 0xe8, 0x58, 0xcd, 0xbc, 0x72, 0xcf, 0xa3, 0x3f, 0x20, 0x4d, 0x37, 0xc0, 0x27, 0x0e, 0x6c, 0xc0, 0x27, 0x2e, 0xa1, 0xbe, 0xa9, 0x15, 0x46, 0xbd, 0x5d, 0x52, 0x01, 0x3d, 0xdc, 0xf0, 0x90, 0x40, 0x5a, 0x70, 0x49, 0xbf, 0x13, 0x00, 0x6c, 0xc0, 0xe8, 0xf2, 0x09, 0x3e, 0x9f, 0x39, 0x1e, 0xbc, 0xea, 0x95, 0x9b, 0x3d, 0x99, 0x33, 0xd0, 0xc0, 0x8f, 0x4b, 0x32, 0x41, 0x65, 0x47, 0x6a, 0x3f, 0x0e, 0xcb, 0xb4, 0x3e, 0x7d, 0xba, 0x96, 0xbc, 0x9c, 0x0a, 0x8e, 0x3d, 0x64, 0x7c, 0x85, 0xc0, 0xd0, 0x01, 0xe6, 0x3f, 0x76, 0xb5, 0xb2, 0x40, 0x65, 0xb6, 0x55, 0xbd, 0x63, 0xce, 0x52, 0x3e, 0x0b, 0xd8, 0x3d, 0x3e, 0xcf, 0xa2, 0x04, 0x41, 0xf4, 0x88, 0xcd, 0xc0, 0xba, 0xe6, 0x87, 0x3e, 0x92, 0xf8, 0x67, 0xbd, 0xc7, 0x0e, 0x15, 0x3d, 0x24, 0x36, 0x67, 0x3e, 0x7e, 0x7d, 0x0e, 0x41, 0xfd, 0x1a, 0x9a, 0x3f, 0x44, 0x4b, 0x5f, 0xbf, 0x49, 0x72, 0xed, 0xbc, 0xe6, 0x17, 0x0d, 0x3d, 0xfc, 0x9e, 0x8f, 0xbd, 0xe0, 0xa1, 0x83, 0xbe, 0xb8, 0xf1, 0x49, 0xbf, 0x6e, 0x54, 0xbf, 0xbe, 0xc9, 0x74, 0x9e, 0x3e, 0x8f, 0x73, 0x8b, 0xbe, 0x67, 0xd4, 0xea, 0x3e, 0x33, 0xd7, 0xda, 0xc0, 0x0c, 0x8c, 0x53, 0x41, 0x7c, 0xc4, 0x8b, 0xbf, 0x22, 0xba, 0x5b, 0x3d, 0x77, 0xf0, 0x50, 0x3b, 0xeb, 0x21, 0x28, 0x3e, 0xce, 0x0a, 0x53, 0xbf, 0xe9, 0x35, 0xb6, 0x40, 0xf5, 0xed, 0xdc, 0xc0, 0x25, 0x88, 0x9a, 0x3d, 0x40, 0x83, 0x4a, 0xbe, 0xef, 0xfe, 0x24, 0xbd, 0xa5, 0x4a, 0xa7, 0xbe, 0xa3, 0x72, 0x83, 0x41, 0x0d, 0xe4, 0xf2, 0x3f, 0x5c, 0xfd, 0x06, 0x3e, 0x31, 0xf0, 0xa1, 0x3c, 0x84, 0x60, 0x8c, 0xbe, 0x0b, 0x7a, 0x4e, 0xc1, 0x27, 0x02, 0x8a, 0xbf, 0xce, 0xda, 0xf1, 0xbe, 0xdc, 0x64, 0xbb, 0x3d, 0xff, 0x4c, 0xba, 0xbc, 0x3d, 0xbe, 0x0e, 0xbe, 0xe5, 0x09, 0x62, 0x3e, 0x0b, 0xe6, 0x85, 0x3f, 0xb3, 0x26, 0x6e, 0x40, 0xe8, 0xb4, 0x76, 0x3d, 0x73, 0xca, 0xb6, 0xbd, 0x9d, 0xca, 0x7a, 0x3e, 0x49, 0xca, 0x01, 0x40, 0x6d, 0x9d, 0x92, 0x41, 0x76, 0x73, 0x99, 0xc0, 0x3c, 0x88, 0x8c, 0xbd, 0xac, 0x92, 0x1d, 0xbe, 0x53, 0x1f, 0xff, 0x3c, 0xca, 0xb8, 0xda, 0xc0, 0x5a, 0xd4, 0xfe, 0x3f, 0x4f, 0xd0, 0x68, 0x40, 0xc3, 0x55, 0x82, 0x3d, 0x2a, 0x4d, 0x96, 0xbd, 0x9a, 0x55, 0x9e, 0x3d, 0xa3, 0xcd, 0xea, 0x40, 0x43, 0xb6, 0x81, 0xbf, 0x45, 0x5d, 0x78, 0xc0, 0x28, 0xd1, 0xf4, 0xbc, 0x1e, 0xec, 0xf5, 0xbd, 0x2b, 0x4b, 0x44, 0xbe, 0xfd, 0xf7, 0xfb, 0xc0, 0x69, 0x47, 0x2c, 0x41, 0x68, 0x7c, 0x32, 0xc0, 0xb0, 0xc8, 0x00, 0x3e, 0x17, 0x9a, 0x38, 0x3d, 0x22, 0xe1, 0x34, 0xbd, 0x09, 0xda, 0x29, 0xc1, 0x22, 0xca, 0xe6, 0x3f, 0x15, 0x01, 0x50, 0xbe, 0x9a, 0x32, 0x01, 0x3d, 0xfa, 0x7c, 0x33, 0x3e, 0xf3, 0x58, 0x37, 0x3c, 0x27, 0xce, 0x42, 0x3f, 0xf3, 0x7b, 0x9b, 0xbf, 0xc2, 0x2d, 0xd7, 0x3f, 0xa0, 0x00, 0xe3, 0xbd, 0xd1, 0xa1, 0x85, 0x3c, 0xd8, 0xe7, 0x0c, 0xbd, 0x60, 0xbe, 0xdd, 0xc0, 0x62, 0xcb, 0xc6, 0xbe, 0xca, 0x7c, 0x00, 0xc1, 0x90, 0xe1, 0xaa, 0x3d, 0xc7, 0x98, 0x9b, 0x3d, 0x97, 0x77, 0x73, 0x3d, 0xe0, 0x90, 0x92, 0xbe, 0xaf, 0xc3, 0xf4, 0x3f, 0x77, 0x12, 0x70, 0xc1, 0xc0, 0x28, 0x2d, 0x3d, 0x72, 0x07, 0xbc, 0x3a, 0xf9, 0x16, 0x32, 0x3d, 0x44, 0x17, 0x2e, 0x40, 0x00, 0xab, 0xc1, 0xbf, 0xb6, 0x4d, 0x77, 0xbf, 0x42, 0x23, 0xb0, 0xbc, 0x9b, 0x48, 0xaa, 0x3e, 0x77, 0xdd, 0x1c, 0x3f, 0x2e, 0xe2, 0x17, 0x40, 0xf3, 0x94, 0xf1, 0x40, 0xda, 0xd1, 0x23, 0x3f, 0xec, 0xe9, 0xb9, 0x3d, 0xfd, 0xdc, 0x42, 0xbd, 0x0a, 0x83, 0x47, 0x3e, 0x46, 0x9a, 0x3b, 0x3e, 0x32, 0xdd, 0xae, 0x3e, 0xae, 0xc4, 0xc0, 0xbe, 0x35, 0x73, 0x4d, 0x3d, 0x7e, 0x8a, 0x28, 0xbf, 0x9a, 0xf2, 0xdf, 0xbd, 0x41, 0x0a, 0x58, 0x3d, 0xe8, 0x95, 0x37, 0xbd, 0x80, 0x06, 0x85, 0xbd, 0x2d, 0xa3, 0xcd, 0xbd, 0xa1, 0x22, 0x36, 0x3f, 0x6d, 0xfd, 0x85, 0xbf, 0x48, 0xa3, 0xc2, 0x3f, 0x5d, 0xb2, 0xb2, 0xbd, 0xaa, 0x03, 0xd2, 0x3d, 0x8c, 0xec, 0x9d, 0x3f, 0xba, 0x66, 0x5b, 0x3e, 0xae, 0x5e, 0x1c, 0x3e, 0x69, 0xa0, 0x5e, 0xc0, 0x3a, 0xc7, 0xe0, 0x3f, 0x7d, 0xe6, 0x0a, 0xc1, 0xbc, 0x0c, 0x85, 0xbd, 0xd9, 0x9f, 0xbe, 0xbd, 0xb5, 0xdb, 0x89, 0x3e, 0xac, 0xc6, 0xec, 0x40, 0xbb, 0x23, 0x1c, 0xc1, 0x96, 0x56, 0x23, 0xc0, 0x34, 0x35, 0x1f, 0xbd, 0xb3, 0x17, 0xae, 0x3b, 0xb0, 0xcd, 0xac, 0x3d, 0xf1, 0x1e, 0x3c, 0x40, 0xdc, 0x7a, 0x1c, 0xc0, 0xfd, 0x40, 0xa8, 0x3f, 0x8a, 0xf0, 0x5e, 0xbe, 0x2c, 0x2e, 0xe7, 0xbe, 0x0d, 0xb4, 0x9c, 0xbd, 0x10, 0x87, 0x61, 0x3f, 0x40, 0xbf, 0x93, 0x41, 0x3b, 0x5f, 0x18, 0xc1, 0x86, 0xd3, 0x8b, 0x3d, 0xcb, 0xae, 0xf9, 0x3d, 0x7f, 0x69, 0x8d, 0x3d, 0xcc, 0x64, 0x5e, 0x40, 0x9a, 0x64, 0x48, 0xc0, 0xe1, 0xca, 0x0a, 0xbf, 0xf4, 0xb3, 0xc0, 0x3d, 0x7c, 0xf9, 0x13, 0xbe, 0xbb, 0x21, 0x9f, 0xbd, 0x5d, 0x3f, 0x89, 0x3f, 0x56, 0xda, 0x32, 0x41, 0x03, 0x61, 0x62, 0xc0, 0xae, 0x5e, 0x63, 0xbd, 0x21, 0x06, 0x38, 0xbd, 0xcc, 0x1d, 0xbc, 0x3d, 0x3c, 0xe2, 0x94, 0xbf, 0xa8, 0xc8, 0x53, 0x40, 0x00, 0xaa, 0xfd, 0x40, 0xc7, 0x69, 0x21, 0x3d, 0x4e, 0xc0, 0xc8, 0xbd, 0x1a, 0x83, 0x6e, 0xbe, 0x9e, 0xea, 0x4e, 0xc0, 0xd5, 0xb3, 0x89, 0xc0, 0x51, 0x7f, 0xb2, 0x3d, 0xe4, 0xd2, 0xa9, 0xbd, 0x05, 0xcb, 0x42, 0xbd, 0x74, 0x94, 0xc3, 0xbd, 0x27, 0xa3, 0xe3, 0x3f, 0x04, 0x46, 0x3f, 0xbf, 0x4b, 0xc6, 0xe1, 0x3d, 0x67, 0xbe, 0x67, 0xbf, 0xf4, 0x8a, 0x59, 0xbc, 0xa9, 0xda, 0x0d, 0x3e, 0x8b, 0xb2, 0xb1, 0xbd, 0x0d, 0x76, 0xe8, 0x3e, 0x6d, 0x2a, 0x2a, 0xbd, 0x74, 0x48, 0x79, 0xbd, 0xa1, 0x9b, 0xcc, 0xbc, 0xb1, 0x07, 0x2c, 0x3f, 0x0d, 0x54, 0xc8, 0xbf, 0x6a, 0x7c, 0xfc, 0x40, 0x0a, 0x5d, 0xdd, 0xbf, 0xaa, 0x02, 0x1e, 0x3e, 0x27, 0xf4, 0xe3, 0xbd, 0x22, 0x69, 0xa7, 0xbe, 0x41, 0x9d, 0x35, 0xc0, 0x6d, 0x0c, 0x77, 0x40, 0xd9, 0x26, 0x79, 0x40, 0x4c, 0x18, 0xb4, 0x3d, 0xda, 0x8c, 0xe5, 0x3c, 0x04, 0x49, 0x1c, 0x3e, 0xfc, 0x09, 0xba, 0xc0, 0x05, 0xf9, 0x0b, 0x41, 0x76, 0xc8, 0xba, 0xbf, 0x0a, 0xec, 0x4b, 0xbd, 0x08, 0x2c, 0x16, 0xbe, 0x88, 0x81, 0xdb, 0x3e, 0x3a, 0xe0, 0xb3, 0x3d, 0x42, 0x8b, 0x54, 0x3f, 0xe4, 0x83, 0x4c, 0xbf, 0x8a, 0x11, 0xa0, 0xbe, 0x07, 0xec, 0x82, 0xbe, 0xff, 0x49, 0xac, 0x3d, 0xda, 0xb1, 0x3b, 0x41, 0x3b, 0xfe, 0xcf, 0x40, 0xcf, 0x9b, 0x99, 0xbe, 0xfd, 0x9d, 0x3a, 0x3d, 0x0a, 0xe1, 0x16, 0x3e, 0x25, 0xef, 0x86, 0x3e, 0x3b, 0x90, 0x70, 0xc0, 0x5e, 0x88, 0x22, 0xbf, 0x09, 0x00, 0x43, 0xc1, 0x01, 0x2f, 0x5e, 0xbc, 0x39, 0x1a, 0x0a, 0x3d, 0x0c, 0x2f, 0x62, 0x3d, 0xbe, 0x37, 0x61, 0x3f, 0x1c, 0x4a, 0xac, 0x40, 0x53, 0x42, 0x5d, 0x3f, 0x24, 0xb5, 0x2f, 0xbe, 0xc3, 0x82, 0x3b, 0x3c, 0x74, 0xfd, 0x20, 0x3e, 0x23, 0x75, 0x59, 0x3f, 0x74, 0xa9, 0xb1, 0x40, 0xd4, 0x2a, 0x2c, 0xc0, 0x70, 0x73, 0x92, 0xbd, 0x5c, 0x08, 0x25, 0x3d, 0x2f, 0x8c, 0xc3, 0xbe, 0xb6, 0x1f, 0x30, 0x41, 0x17, 0x36, 0xca, 0xbf, 0x33, 0x76, 0x05, 0xbf, 0xdc, 0x06, 0xa4, 0x39, 0x62, 0x5c, 0x4f, 0xbd, 0xb1, 0xeb, 0x61, 0xbd, 0x7a, 0x4f, 0x83, 0x40, 0xc3, 0xf4, 0x45, 0x3f, 0xcd, 0xf9, 0x4e, 0xc1, 0x21, 0x18, 0x34, 0xbd, 0xa2, 0x64, 0x33, 0xbc, 0xa1, 0x65, 0x02, 0x3e, 0xe2, 0xfe, 0xff, 0xff, 0x04, 0x00, 0x00, 0x00, 0x00, 0x01, 0x00, 0x00, 0x69, 0x21, 0x89, 0xbe, 0x58, 0x64, 0x96, 0x3e, 0xb2, 0x24, 0x80, 0xc1, 0x7d, 0xa8, 0x1a, 0xc1, 0x3a, 0x3c, 0x9a, 0x3d, 0xb0, 0x58, 0x49, 0x3e, 0x09, 0x97, 0x94, 0xbe, 0x45, 0xea, 0x84, 0x3d, 0x95, 0x54, 0x4b, 0xc1, 0x6f, 0xdd, 0x01, 0x3f, 0xbd, 0x83, 0xf5, 0xbf, 0x45, 0x0c, 0x96, 0xbd, 0x65, 0x8b, 0x1b, 0xc0, 0xac, 0xa8, 0xb2, 0xc0, 0xe6, 0xb4, 0x2e, 0xc0, 0x5f, 0xb4, 0x94, 0x3f, 0xea, 0xb7, 0x50, 0xc0, 0xcb, 0x3e, 0xf1, 0xbe, 0x71, 0xdf, 0x38, 0x40, 0x25, 0xb0, 0x18, 0xc0, 0xf6, 0xcc, 0x98, 0xc0, 0x23, 0x19, 0xc8, 0xbf, 0x74, 0xbc, 0xb8, 0xc0, 0x2f, 0x07, 0x1f, 0xbe, 0xff, 0x08, 0xa7, 0x3f, 0x5c, 0xd5, 0xa6, 0xbe, 0x3c, 0x55, 0xa7, 0x3d, 0xeb, 0xa8, 0xc1, 0xc0, 0x95, 0xa9, 0xcb, 0xbf, 0x7e, 0xcc, 0x08, 0xbe, 0x5b, 0x13, 0x95, 0xc1, 0xc0, 0x5a, 0xdd, 0x3f, 0x70, 0xc4, 0x8d, 0xc0, 0xa2, 0x0f, 0xb9, 0xbd, 0x1a, 0xf3, 0x27, 0x40, 0x86, 0x5d, 0x49, 0xbf, 0x14, 0x9e, 0xd6, 0xbf, 0x75, 0x09, 0xeb, 0xc0, 0xe4, 0x93, 0x9f, 0x3f, 0xe9, 0x6c, 0x7b, 0xbf, 0xe5, 0x7c, 0x8a, 0xbf, 0x65, 0xa2, 0x91, 0x3e, 0xec, 0xb7, 0xb0, 0xbd, 0xbe, 0x1e, 0xdc, 0xbd, 0x9d, 0xcd, 0x8e, 0x40, 0xb8, 0xb5, 0x27, 0xc1, 0xdd, 0x85, 0xc2, 0xbf, 0xc1, 0xd3, 0x1b, 0x40, 0x0a, 0x51, 0x58, 0xc0, 0xde, 0x98, 0x00, 0xc0, 0x12, 0xd5, 0x3e, 0x3c, 0xbf, 0x66, 0xf6, 0x3e, 0x36, 0xae, 0xe6, 0xbd, 0x9b, 0x56, 0x79, 0x3d, 0xe7, 0x26, 0x8f, 0x3f, 0xa8, 0x03, 0x1d, 0x40, 0xf0, 0x18, 0x74, 0x3f, 0x76, 0x36, 0xa1, 0x3e, 0xc6, 0xe6, 0x8d, 0x3f, 0x75, 0x6c, 0xb0, 0x40, 0x2a, 0x98, 0xa0, 0xbf, 0x7d, 0xb3, 0x84, 0x3e, 0xe7, 0xd7, 0xc0, 0xbf, 0x16, 0x27, 0x8f, 0x3f, 0xee, 0xff, 0xff, 0xff, 0x04, 0x00, 0x00, 0x00, 0x04, 0x00, 0x00, 0x00, 0xb5, 0x85, 0x00, 0xbf, 0x00, 0x00, 0x06, 0x00, 0x08, 0x00, 0x04, 0x00, 0x06, 0x00, 0x00, 0x00, 0x04, 0x00, 0x00, 0x00, 0x80, 0x00, 0x00, 0x00, 0xef, 0x2c, 0xcb, 0x3f, 0x38, 0xbc, 0x77, 0x40, 0x0a, 0x6d, 0x82, 0x3e, 0x55, 0x6e, 0xa8, 0xbe, 0xc8, 0x2b, 0x83, 0xbe, 0x25, 0x72, 0x50, 0xbe, 0x24, 0xa3, 0x78, 0xc0, 0x0b, 0x1e, 0x88, 0x3f, 0xd7, 0xb9, 0xb1, 0x40, 0x89, 0xaa, 0xb4, 0xbd, 0x4b, 0x2f, 0xf1, 0xbd, 0x5a, 0x82, 0x7c, 0x40, 0x4e, 0x58, 0x61, 0x40, 0x7f, 0x27, 0x14, 0x40, 0xa6, 0x88, 0xc7, 0xbf, 0x09, 0x23, 0x2a, 0x3f, 0x2a, 0x65, 0x37, 0xbe, 0xb0, 0x1c, 0xf2, 0xbb, 0x6f, 0x3f, 0xc4, 0xc0, 0xe4, 0x62, 0xae, 0x3f, 0xc5, 0x1b, 0x7e, 0xc0, 0xfa, 0x8b, 0x61, 0xc0, 0x39, 0xed, 0x5c, 0xbe, 0xf0, 0x9e, 0x0b, 0xbe, 0x06, 0x97, 0xd5, 0x3e, 0x5e, 0xf2, 0x7f, 0x3f, 0x44, 0x91, 0x7b, 0xbf, 0x70, 0x4a, 0xa9, 0xc0, 0x32, 0x71, 0x2e, 0x40, 0x43, 0xca, 0x6d, 0xc0, 0xdb, 0x2a, 0xb6, 0xc1, 0x84, 0x9b, 0x7f, 0x40, 0x78, 0xfa, 0xff, 0xff, 0x7c, 0xfa, 0xff, 0xff, 0x0f, 0x00, 0x00, 0x00, 0x4d, 0x4c, 0x49, 0x52, 0x20, 0x43, 0x6f, 0x6e, 0x76, 0x65, 0x72, 0x74, 0x65, 0x64, 0x2e, 0x00, 0x01, 0x00, 0x00, 0x00, 0x14, 0x00, 0x00, 0x00, 0x00, 0x00, 0x0e, 0x00, 0x18, 0x00, 0x14, 0x00, 0x10, 0x00, 0x0c, 0x00, 0x08, 0x00, 0x04, 0x00, 0x0e, 0x00, 0x00, 0x00, 0x14, 0x00, 0x00, 0x00, 0x1c, 0x00, 0x00, 0x00, 0x08, 0x01, 0x00, 0x00, 0x0c, 0x01, 0x00, 0x00, 0x10, 0x01, 0x00, 0x00, 0x04, 0x00, 0x00, 0x00, 0x6d, 0x61, 0x69, 0x6e, 0x00, 0x00, 0x00, 0x00, 0x04, 0x00, 0x00, 0x00, 0xb0, 0x00, 0x00, 0x00, 0x68, 0x00, 0x00, 0x00, 0x34, 0x00, 0x00, 0x00, 0x10, 0x00, 0x00, 0x00, 0x00, 0x00, 0x0a, 0x00, 0x10, 0x00, 0x0c, 0x00, 0x08, 0x00, 0x04, 0x00, 0x0a, 0x00, 0x00, 0x00, 0x0c, 0x00, 0x00, 0x00, 0x10, 0x00, 0x00, 0x00, 0x01, 0x00, 0x00, 0x00, 0x01, 0x00, 0x00, 0x00, 0x0a, 0x00, 0x00, 0x00, 0x01, 0x00, 0x00, 0x00, 0x09, 0x00, 0x00, 0x00, 0x9a, 0xff, 0xff, 0xff, 0x10, 0x00, 0x00, 0x00, 0x00, 0x00, 0x00, 0x08, 0x0c, 0x00, 0x00, 0x00, 0x10, 0x00, 0x00, 0x00, 0x24, 0xfb, 0xff, 0xff, 0x01, 0x00, 0x00, 0x00, 0x09, 0x00, 0x00, 0x00, 0x03, 0x00, 0x00, 0x00, 0x08, 0x00, 0x00, 0x00, 0x06, 0x00, 0x00, 0x00, 0x02, 0x00, 0x00, 0x00, 0xca, 0xff, 0xff, 0xff, 0x10, 0x00, 0x00, 0x00, 0x00, 0x00, 0x00, 0x08, 0x10, 0x00, 0x00, 0x00, 0x14, 0x00, 0x00, 0x00, 0xba, 0xff, 0xff, 0xff, 0x00, 0x00, 0x00, 0x01, 0x01, 0x00, 0x00, 0x00, 0x08, 0x00, 0x00, 0x00, 0x03, 0x00, 0x00, 0x00, 0x07, 0x00, 0x00, 0x00, 0x05, 0x00, 0x00, 0x00, 0x01, 0x00, 0x00, 0x00, 0x00, 0x00, 0x0e, 0x00, 0x16, 0x00, 0x00, 0x00, 0x10, 0x00, 0x0c, 0x00, 0x0b, 0x00, 0x04, 0x00, 0x0e, 0x00, 0x00, 0x00, 0x18, 0x00, 0x00, 0x00, 0x00, 0x00, 0x00, 0x08, 0x18, 0x00, 0x00, 0x00, 0x1c, 0x00, 0x00, 0x00, 0x00, 0x00, 0x06, 0x00, 0x08, 0x00, 0x07, 0x00, 0x06, 0x00, 0x00, 0x00, 0x00, 0x00, 0x00, 0x01, 0x01, 0x00, 0x00, 0x00, 0x07, 0x00, 0x00, 0x00, 0x03, 0x00, 0x00, 0x00, 0x00, 0x00, 0x00, 0x00, 0x04, 0x00, 0x00, 0x00, 0x03, 0x00, 0x00, 0x00, 0x01, 0x00, 0x00, 0x00, 0x0a, 0x00, 0x00, 0x00, 0x01, 0x00, 0x00, 0x00, 0x00, 0x00, 0x00, 0x00, 0x0b, 0x00, 0x00, 0x00, 0x04, 0x04, 0x00, 0x00, 0x94, 0x03, 0x00, 0x00, 0x24, 0x03, 0x00, 0x00, 0xd0, 0x02, 0x00, 0x00, 0x88, 0x02, 0x00, 0x00, 0x3c, 0x02, 0x00, 0x00, 0xf0, 0x01, 0x00, 0x00, 0x68, 0x01, 0x00, 0x00, 0xd8, 0x00, 0x00, 0x00, 0x60, 0x00, 0x00, 0x00, 0x04, 0x00, 0x00, 0x00, 0x3e, 0xfc, 0xff, 0xff, 0x00, 0x00, 0x00, 0x01, 0x14, 0x00, 0x00, 0x00, 0x1c, 0x00, 0x00, 0x00, 0x1c, 0x00, 0x00, 0x00, 0x0b, 0x00, 0x00, 0x00, 0x34, 0x00, 0x00, 0x00, 0x02, 0x00, 0x00, 0x00, 0xff, 0xff, 0xff, 0xff, 0x01, 0x00, 0x00, 0x00, 0x28, 0xfc, 0xff, 0xff, 0x19, 0x00, 0x00, 0x00, 0x53, 0x74, 0x61, 0x74, 0x65, 0x66, 0x75, 0x6c, 0x50, 0x61, 0x72, 0x74, 0x69, 0x74, 0x69, 0x6f, 0x6e, 0x65, 0x64, 0x43, 0x61, 0x6c, 0x6c, 0x3a, 0x30, 0x00, 0x00, 0x00, 0x02, 0x00, 0x00, 0x00, 0x01, 0x00, 0x00, 0x00, 0x01, 0x00, 0x00, 0x00, 0x96, 0xfc, 0xff, 0xff, 0x00, 0x00, 0x00, 0x01, 0x14, 0x00, 0x00, 0x00, 0x1c, 0x00, 0x00, 0x00, 0x1c, 0x00, 0x00, 0x00, 0x0a, 0x00, 0x00, 0x00, 0x50, 0x00, 0x00, 0x00, 0x02, 0x00, 0x00, 0x00, 0xff, 0xff, 0xff, 0xff, 0x01, 0x00, 0x00, 0x00, 0x80, 0xfc, 0xff, 0xff, 0x34, 0x00, 0x00, 0x00, 0x73, 0x65, 0x71, 0x75, 0x65, 0x6e, 0x74, 0x69, 0x61, 0x6c, 0x2f, 0x64, 0x65, 0x6e, 0x73, 0x65, 0x5f, 0x32, 0x2f, 0x4d, 0x61, 0x74, 0x4d, 0x75, 0x6c, 0x3b, 0x73, 0x65, 0x71, 0x75, 0x65, 0x6e, 0x74, 0x69, 0x61, 0x6c, 0x2f, 0x64, 0x65, 0x6e, 0x73, 0x65, 0x5f, 0x32, 0x2f, 0x42, 0x69, 0x61, 0x73, 0x41, 0x64, 0x64, 0x00, 0x00, 0x00, 0x00, 0x02, 0x00, 0x00, 0x00, 0x01, 0x00, 0x00, 0x00, 0x01, 0x00, 0x00, 0x00, 0x0a, 0xfd, 0xff, 0xff, 0x00, 0x00, 0x00, 0x01, 0x14, 0x00, 0x00, 0x00, 0x1c, 0x00, 0x00, 0x00, 0x1c, 0x00, 0x00, 0x00, 0x09, 0x00, 0x00, 0x00, 0x68, 0x00, 0x00, 0x00, 0x02, 0x00, 0x00, 0x00, 0xff, 0xff, 0xff, 0xff, 0x20, 0x00, 0x00, 0x00, 0xf4, 0xfc, 0xff, 0xff, 0x4c, 0x00, 0x00, 0x00, 0x73, 0x65, 0x71, 0x75, 0x65, 0x6e, 0x74, 0x69, 0x61, 0x6c, 0x2f, 0x64, 0x65, 0x6e, 0x73, 0x65, 0x5f, 0x31, 0x2f, 0x4d, 0x61, 0x74, 0x4d, 0x75, 0x6c, 0x3b, 0x73, 0x65, 0x71, 0x75, 0x65, 0x6e, 0x74, 0x69, 0x61, 0x6c, 0x2f, 0x64, 0x65, 0x6e, 0x73, 0x65, 0x5f, 0x31, 0x2f, 0x52, 0x65, 0x6c, 0x75, 0x3b, 0x73, 0x65, 0x71, 0x75, 0x65, 0x6e, 0x74, 0x69, 0x61, 0x6c, 0x2f, 0x64, 0x65, 0x6e, 0x73, 0x65, 0x5f, 0x31, 0x2f, 0x42, 0x69, 0x61, 0x73, 0x41, 0x64, 0x64, 0x00, 0x00, 0x00, 0x00, 0x02, 0x00, 0x00, 0x00, 0x01, 0x00, 0x00, 0x00, 0x20, 0x00, 0x00, 0x00, 0x96, 0xfd, 0xff, 0xff, 0x00, 0x00, 0x00, 0x01, 0x14, 0x00, 0x00, 0x00, 0x1c, 0x00, 0x00, 0x00, 0x1c, 0x00, 0x00, 0x00, 0x08, 0x00, 0x00, 0x00, 0x60, 0x00, 0x00, 0x00, 0x02, 0x00, 0x00, 0x00, 0xff, 0xff, 0xff, 0xff, 0x40, 0x00, 0x00, 0x00, 0x80, 0xfd, 0xff, 0xff, 0x46, 0x00, 0x00, 0x00, 0x73, 0x65, 0x71, 0x75, 0x65, 0x6e, 0x74, 0x69, 0x61, 0x6c, 0x2f, 0x64, 0x65, 0x6e, 0x73, 0x65, 0x2f, 0x4d, 0x61, 0x74, 0x4d, 0x75, 0x6c, 0x3b, 0x73, 0x65, 0x71, 0x75, 0x65, 0x6e, 0x74, 0x69, 0x61, 0x6c, 0x2f, 0x64, 0x65, 0x6e, 0x73, 0x65, 0x2f, 0x52, 0x65, 0x6c, 0x75, 0x3b, 0x73, 0x65, 0x71, 0x75, 0x65, 0x6e, 0x74, 0x69, 0x61, 0x6c, 0x2f, 0x64, 0x65, 0x6e, 0x73, 0x65, 0x2f, 0x42, 0x69, 0x61, 0x73, 0x41, 0x64, 0x64, 0x00, 0x00, 0x02, 0x00, 0x00, 0x00, 0x01, 0x00, 0x00, 0x00, 0x40, 0x00, 0x00, 0x00, 0x86, 0xfe, 0xff, 0xff, 0x00, 0x00, 0x00, 0x01, 0x10, 0x00, 0x00, 0x00, 0x10, 0x00, 0x00, 0x00, 0x07, 0x00, 0x00, 0x00, 0x28, 0x00, 0x00, 0x00, 0xf4, 0xfd, 0xff, 0xff, 0x19, 0x00, 0x00, 0x00, 0x73, 0x65, 0x71, 0x75, 0x65, 0x6e, 0x74, 0x69, 0x61, 0x6c, 0x2f, 0x64, 0x65, 0x6e, 0x73, 0x65, 0x5f, 0x32, 0x2f, 0x4d, 0x61, 0x74, 0x4d, 0x75, 0x6c, 0x00, 0x00, 0x00, 0x02, 0x00, 0x00, 0x00, 0x01, 0x00, 0x00, 0x00, 0x20, 0x00, 0x00, 0x00, 0xce, 0xfe, 0xff, 0xff, 0x00, 0x00, 0x00, 0x01, 0x10, 0x00, 0x00, 0x00, 0x10, 0x00, 0x00, 0x00, 0x06, 0x00, 0x00, 0x00, 0x28, 0x00, 0x00, 0x00, 0x3c, 0xfe, 0xff, 0xff, 0x19, 0x00, 0x00, 0x00, 0x73, 0x65, 0x71, 0x75, 0x65, 0x6e, 0x74, 0x69, 0x61, 0x6c, 0x2f, 0x64, 0x65, 0x6e, 0x73, 0x65, 0x5f, 0x31, 0x2f, 0x4d, 0x61, 0x74, 0x4d, 0x75, 0x6c, 0x00, 0x00, 0x00, 0x02, 0x00, 0x00, 0x00, 0x20, 0x00, 0x00, 0x00, 0x40, 0x00, 0x00, 0x00, 0x16, 0xff, 0xff, 0xff, 0x00, 0x00, 0x00, 0x01, 0x10, 0x00, 0x00, 0x00, 0x10, 0x00, 0x00, 0x00, 0x05, 0x00, 0x00, 0x00, 0x24, 0x00, 0x00, 0x00, 0x84, 0xfe, 0xff, 0xff, 0x17, 0x00, 0x00, 0x00, 0x73, 0x65, 0x71, 0x75, 0x65, 0x6e, 0x74, 0x69, 0x61, 0x6c, 0x2f, 0x64, 0x65, 0x6e, 0x73, 0x65, 0x2f, 0x4d, 0x61, 0x74, 0x4d, 0x75, 0x6c, 0x00, 0x02, 0x00, 0x00, 0x00, 0x40, 0x00, 0x00, 0x00, 0x06, 0x00, 0x00, 0x00, 0x5a, 0xff, 0xff, 0xff, 0x00, 0x00, 0x00, 0x01, 0x10, 0x00, 0x00, 0x00, 0x10, 0x00, 0x00, 0x00, 0x04, 0x00, 0x00, 0x00, 0x34, 0x00, 0x00, 0x00, 0xc8, 0xfe, 0xff, 0xff, 0x27, 0x00, 0x00, 0x00, 0x73, 0x65, 0x71, 0x75, 0x65, 0x6e, 0x74, 0x69, 0x61, 0x6c, 0x2f, 0x64, 0x65, 0x6e, 0x73, 0x65, 0x2f, 0x42, 0x69, 0x61, 0x73, 0x41, 0x64, 0x64, 0x2f, 0x52, 0x65, 0x61, 0x64, 0x56, 0x61, 0x72, 0x69, 0x61, 0x62, 0x6c, 0x65, 0x4f, 0x70, 0x00, 0x01, 0x00, 0x00, 0x00, 0x40, 0x00, 0x00, 0x00, 0xaa, 0xff, 0xff, 0xff, 0x00, 0x00, 0x00, 0x01, 0x10, 0x00, 0x00, 0x00, 0x10, 0x00, 0x00, 0x00, 0x03, 0x00, 0x00, 0x00, 0x38, 0x00, 0x00, 0x00, 0x18, 0xff, 0xff, 0xff, 0x29, 0x00, 0x00, 0x00, 0x73, 0x65, 0x71, 0x75, 0x65, 0x6e, 0x74, 0x69, 0x61, 0x6c, 0x2f, 0x64, 0x65, 0x6e, 0x73, 0x65, 0x5f, 0x32, 0x2f, 0x42, 0x69, 0x61, 0x73, 0x41, 0x64, 0x64, 0x2f, 0x52, 0x65, 0x61, 0x64, 0x56, 0x61, 0x72, 0x69, 0x61, 0x62, 0x6c, 0x65, 0x4f, 0x70, 0x00, 0x00, 0x00, 0x01, 0x00, 0x00, 0x00, 0x01, 0x00, 0x00, 0x00, 0x00, 0x00, 0x16, 0x00, 0x18, 0x00, 0x14, 0x00, 0x00, 0x00, 0x10, 0x00, 0x0c, 0x00, 0x08, 0x00, 0x00, 0x00, 0x00, 0x00, 0x00, 0x00, 0x07, 0x00, 0x16, 0x00, 0x00, 0x00, 0x00, 0x00, 0x00, 0x01, 0x10, 0x00, 0x00, 0x00, 0x10, 0x00, 0x00, 0x00, 0x02, 0x00, 0x00, 0x00, 0x38, 0x00, 0x00, 0x00, 0x84, 0xff, 0xff, 0xff, 0x29, 0x00, 0x00, 0x00, 0x73, 0x65, 0x71, 0x75, 0x65, 0x6e, 0x74, 0x69, 0x61, 0x6c, 0x2f, 0x64, 0x65, 0x6e, 0x73, 0x65, 0x5f, 0x31, 0x2f, 0x42, 0x69, 0x61, 0x73, 0x41, 0x64, 0x64, 0x2f, 0x52, 0x65, 0x61, 0x64, 0x56, 0x61, 0x72, 0x69, 0x61, 0x62, 0x6c, 0x65, 0x4f, 0x70, 0x00, 0x00, 0x00, 0x01, 0x00, 0x00, 0x00, 0x20, 0x00, 0x00, 0x00, 0x00, 0x00, 0x16, 0x00, 0x1c, 0x00, 0x18, 0x00, 0x00, 0x00, 0x14, 0x00, 0x10, 0x00, 0x0c, 0x00, 0x00, 0x00, 0x00, 0x00, 0x08, 0x00, 0x07, 0x00, 0x16, 0x00, 0x00, 0x00, 0x00, 0x00, 0x00, 0x01, 0x14, 0x00, 0x00, 0x00, 0x20, 0x00, 0x00, 0x00, 0x20, 0x00, 0x00, 0x00, 0x01, 0x00, 0x00, 0x00, 0x38, 0x00, 0x00, 0x00, 0x02, 0x00, 0x00, 0x00, 0xff, 0xff, 0xff, 0xff, 0x06, 0x00, 0x00, 0x00, 0x04, 0x00, 0x04, 0x00, 0x04, 0x00, 0x00, 0x00, 0x19, 0x00, 0x00, 0x00, 0x73, 0x65, 0x72, 0x76, 0x69, 0x6e, 0x67, 0x5f, 0x64, 0x65, 0x66, 0x61, 0x75, 0x6c, 0x74, 0x5f, 0x69, 0x6e, 0x70, 0x75, 0x74, 0x5f, 0x31, 0x3a, 0x30, 0x00, 0x00, 0x00, 0x02, 0x00, 0x00, 0x00, 0x01, 0x00, 0x00, 0x00, 0x06, 0x00, 0x00, 0x00, 0x02, 0x00, 0x00, 0x00, 0x20, 0x00, 0x00, 0x00, 0x04, 0x00, 0x00, 0x00, 0xf4, 0xff, 0xff, 0xff, 0x0e, 0x00, 0x00, 0x00, 0x00, 0x00, 0x00, 0x0e, 0x0c, 0x00, 0x0c, 0x00, 0x0b, 0x00, 0x00, 0x00, 0x00, 0x00, 0x04, 0x00, 0x0c, 0x00, 0x00, 0x00, 0x09, 0x00, 0x00, 0x00, 0x00, 0x00, 0x00, 0x09
};
const int model_data_len = sizeof(model_data);
